WIDTH=64;
DEPTH=512;
ADDRESS_RADIX=UNS;
DATA_RADIX=HEX;
CONTENT BEGIN
    0 : 242A98A1000A0000001176;
    1 : 800007010A00000020BB;
    2 : 9F4E53A0A0000003080;
    3 : 0103FFF154004041;
    4 : 01040100F0005018;
    5 : 0167B0CEC0006017;
    6 : 01060A3FEF007010;
    7 : 01070A000000800F;
    8 : 016BB0CD4000900C;
    9 : 01090100C300A00B;
    10 : -000010000000000;
    11 : -000010000000000;
    12 : 010C0100B500D00E;
    13 : -000010000000000;
    14 : -000010000000000;
    15 : -000010000000000;
    16 : 01100100C8011012;
    17 : -000010000000000;
    18 : 01120100C9013016;
    19 : 0173B0CD40014015;
    20 : -000010000000000;
    21 : -000010000000000;
    22 : -000010000000000;
    23 : -000010000000000;
    24 : 011801034A019030;
    25 : 01190101F301A027;
    26 : 011A1ECC3401B022;
    27 : 011B0A000201C01F;
    28 : 017FB0CDC001D01E;
    29 : -000010000000000;
    30 : -000010000000000;
    31 : 017FB0CDC0020021;
    32 : -000010000000000;
    33 : -000010000000000;
    34 : 0163B0CD40023024;
    35 : -000010000000000;
    36 : 01242F252B025026;
    37 : -000010000000000;
    38 : -000010000000000;
    39 : 0127010333028029;
    40 : -000010000000000;
    41 : 016BB0CDC002A02D;
    42 : 016BB0CD4002B02C;
    43 : -000010000000000;
    44 : -000010000000000;
    45 : 016FB0CE4002E02F;
    46 : -000010000000000;
    47 : -000010000000000;
    48 : 01300A000003103A;
    49 : 0173B0CDC0032039;
    50 : 0173B0CD40033036;
    51 : 01330103DA034035;
    52 : -000010000000000;
    53 : -000010000000000;
    54 : 0136010669037038;
    55 : -000010000000000;
    56 : -000010000000000;
    57 : -000010000000000;
    58 : 013A0103FB03B040;
    59 : 013B0103FA03C03D;
    60 : -000010000000000;
    61 : 013D0A02C703E03F;
    62 : -000010000000000;
    63 : -000010000000000;
    64 : -000010000000000;
    65 : 0163B0CEC0042077;
    66 : 014201034A043060;
    67 : 0163B0CDC0044051;
    68 : 01741EE5C004504A;
    69 : 01450100C8046047;
    70 : -000010000000000;
    71 : 0177DB3E40048049;
    72 : -000010000000000;
    73 : -000010000000000;
    74 : 01FEFFAE0004B04E;
    75 : 017FDFD90004C04D;
    76 : -000010000000000;
    77 : -000010000000000;
    78 : 014E0100C004F050;
    79 : -000010000000000;
    80 : -000010000000000;
    81 : 01510100F0052059;
    82 : 01520100C7053056;
    83 : 0173B0CE40054055;
    84 : -000010000000000;
    85 : -000010000000000;
    86 : 0177B0CE40057058;
    87 : -000010000000000;
    88 : -000010000000000;
    89 : 8B7F97A000005A05D;
    90 : 035F0F160005B05C;
    91 : -000010000000000;
    92 : -000010000000000;
    93 : 015D0101C505E05F;
    94 : -000010000000000;
    95 : -000010000000000;
    96 : E16C4F0000061070;
    97 : 0163B0CD40062069;
    98 : 017A0E9740063066;
    99 : 017BEF1900064065;
    100 : -000010000000000;
    101 : -000010000000000;
    102 : 01660103E9067068;
    103 : -000010000000000;
    104 : -000010000000000;
    105 : 017B1A6B8006A06D;
    106 : 016BB0CDC006B06C;
    107 : -000010000000000;
    108 : -000010000000000;
    109 : 057F0EBC0006E06F;
    110 : -000010000000000;
    111 : -000010000000000;
    112 : E170BA8000071072;
    113 : -000010000000000;
    114 : 0173B0CE40073076;
    115 : 540DFF4A0000074075;
    116 : -000010000000000;
    117 : -000010000000000;
    118 : -000010000000000;
    119 : 0177010399078079;
    120 : -000010000000000;
    121 : 017BB0CFC007A07F;
    122 : 017BB0CF4007B07C;
    123 : -000010000000000;
    124 : 75FC2E000007D07E;
    125 : -000010000000000;
    126 : -000010000000000;
    127 : -000010000000000;
    128 : 01800100C6081096;
    129 : 01E3B0CDC0082093;
    130 : 01820100C0083084;
    131 : -000010000000000;
    132 : 3E384D840A000008508C;
    133 : 01850100C1086087;
    134 : -000010000000000;
    135 : 3CABDB870A000008808B;
    136 : 01880100C408908A;
    137 : -000010000000000;
    138 : -000010000000000;
    139 : -000010000000000;
    140 : 7A9A77CC0A000008D08E;
    141 : -000010000000000;
    142 : 018E0100C208F090;
    143 : -000010000000000;
    144 : 01F3B0CD40091092;
    145 : -000010000000000;
    146 : -000010000000000;
    147 : 01930100BA094095;
    148 : -000010000000000;
    149 : -000010000000000;
    150 : A000D9E0A00000970A0;
    151 : 019701033209809F;
    152 : 01FBB0CE4009909E;
    153 : 01FBB0CD4009A09B;
    154 : -000010000000000;
    155 : 01FBB0CDC009C09D;
    156 : -000010000000000;
    157 : -000010000000000;
    158 : -000010000000000;
    159 : -000010000000000;
    160 : 01A00101E80A10AA;
    161 : 01A10100C90A20A9;
    162 : 01A20100C80A30A4;
    163 : -000010000000000;
    164 : 01E7B0CD400A50A6;
    165 : -000010000000000;
    166 : 01E7B0CE800A70A8;
    167 : -000010000000000;
    168 : -000010000000000;
    169 : -000010000000000;
    170 : 01AA0101E90AB0B0;
    171 : 6A488BAB0A00000AC0AD;
    172 : -000010000000000;
    173 : 6AC88BAD0A00000AE0AF;
    174 : -000010000000000;
    175 : -000010000000000;
    176 : 477C11B00A00000B10B6;
    177 : 01B10103FC0B20B5;
    178 : 01B20103E80B30B4;
    179 : -000010000000000;
    180 : -000010000000000;
    181 : -000010000000000;
    182 : 01F7B0CE400B70BA;
    183 : 01B70103FA0B80B9;
    184 : -000010000000000;
    185 : -000010000000000;
    186 : -000010000000000;
    187 : 01FBB0CE400BC165;
    188 : 86516C9BC0A00000BD106;
    189 : 01FFB0CDC00BE0E5;
    190 : 01FFB0CD400BF0D4;
    191 : 01BF0103F10C00CD;
    192 : FF1D33C00A00000C10C8;
    193 : 843EE3C10A00000C20C5;
    194 : 83E419C20A00000C30C4;
    195 : -000010000000000;
    196 : -000010000000000;
    197 : 01C50103E80C60C7;
    198 : -000010000000000;
    199 : -000010000000000;
    200 : 01C80100BF0C90CA;
    201 : -000010000000000;
    202 : 5FEEA61CA0A00000CB0CC;
    203 : -000010000000000;
    204 : -000010000000000;
    205 : 01CD0104F20CE0D3;
    206 : 01CE0104F00CF0D2;
    207 : 7F47EAFFFFFFFC00D00D1;
    208 : -000010000000000;
    209 : -000010000000000;
    210 : -000010000000000;
    211 : -000010000000000;
    212 : 01D40101F70D50DE;
    213 : 01D50100C00D60D7;
    214 : -000010000000000;
    215 : 01D701017B0D80DB;
    216 : 840AFFD80A00000D90DA;
    217 : -000010000000000;
    218 : -000010000000000;
    219 : 1007B39DB0A00000DC0DD;
    220 : -000010000000000;
    221 : -000010000000000;
    222 : 01DE0104F20DF0E4;
    223 : 01DF0103C00E00E1;
    224 : -000010000000000;
    225 : 01E10103C90E20E3;
    226 : -000010000000000;
    227 : -000010000000000;
    228 : -000010000000000;
    229 : FF97D9E50A00000E60FB;
    230 : 01E60101070E70EE;
    231 : 803001E70A00000E80E9;
    232 : -000010000000000;
    233 : 8092A1E90A00000EA0EB;
    234 : -000010000000000;
    235 : 01EB0100C00EC0ED;
    236 : -000010000000000;
    237 : -000010000000000;
    238 : 01EE0103F50EF0F6;
    239 : BD3AC3EF0A00000F00F3;
    240 : 872681F00A00000F10F2;
    241 : -000010000000000;
    242 : -000010000000000;
    243 : 01F30103CA0F40F5;
    244 : -000010000000000;
    245 : -000010000000000;
    246 : 01F60104E50F70FA;
    247 : 01F70104BF0F80F9;
    248 : -000010000000000;
    249 : -000010000000000;
    250 : -000010000000000;
    251 : 8624559FB0A00000FC105;
    252 : 01FC01052F0FD104;
    253 : 6759651FD0A00000FE101;
    254 : 5A10E19FE0A00000FF100;
    255 : -000010000000000;
    256 : -000010000000000;
    257 : 0101010160102103;
    258 : -000010000000000;
    259 : -000010000000000;
    260 : -000010000000000;
    261 : -000010000000000;
    262 : F4AB5C9060A0000107134;
    263 : 0167B0CD4010811B;
    264 : 01080101F5109114;
    265 : 01090101E510A10F;
    266 : 90673A10A0A000010B10E;
    267 : 010B01018C10C10D;
    268 : -000010000000000;
    269 : -000010000000000;
    270 : -000010000000000;
    271 : 010F0101F3110113;
    272 : C8F6709100A0000111112;
    273 : -000010000000000;
    274 : -000010000000000;
    275 : -000010000000000;
    276 : CABB509140A000011511A;
    277 : CA9CFE9150A0000116119;
    278 : 01160103E9117118;
    279 : -000010000000000;
    280 : -000010000000000;
    281 : -000010000000000;
    282 : -000010000000000;
    283 : 017BB0CDC011C125;
    284 : 011C0103EA11D124;
    285 : F0D2C211D0A000011E121;
    286 : 011E0103E411F120;
    287 : -000010000000000;
    288 : -000010000000000;
    289 : F0F0011210A0000122123;
    290 : -000010000000000;
    291 : -000010000000000;
    292 : -000010000000000;
    293 : D078751250A000012612D;
    294 : 8D24261260A000012712A;
    295 : 8AF3659270A0000128129;
    296 : -000010000000000;
    297 : -000010000000000;
    298 : 9A7EC592A0A000012B12C;
    299 : -000010000000000;
    300 : -000010000000000;
    301 : 012D0101EF12E131;
    302 : ED292412E0A008012F130;
    303 : -000010000000000;
    304 : -000010000000000;
    305 : 01310103E6132133;
    306 : -000010000000000;
    307 : -000010000000000;
    308 : 13372DB1340A000013514A;
    309 : 01350101E9136143;
    310 : 104C4391360A000013713C;
    311 : 01370100BB138139;
    312 : -000010000000000;
    313 : FC25A19390A000013A13B;
    314 : -000010000000000;
    315 : -000010000000000;
    316 : 10E7BC013C0A000013D140;
    317 : 013D0100D013E13F;
    318 : -000010000000000;
    319 : -000010000000000;
    320 : 0163B0CD40141142;
    321 : -000010000000000;
    322 : -000010000000000;
    323 : 01430104C2144149;
    324 : 01440103E8145146;
    325 : -000010000000000;
    326 : 0167B0CD40147148;
    327 : -000010000000000;
    328 : -000010000000000;
    329 : -000010000000000;
    330 : 016BB0CDC014B158;
    331 : 1FFF45314B0A000014C153;
    332 : 016FB0CD4014D150;
    333 : 13FA7A614D0A000014E14F;
    334 : -000010000000000;
    335 : -000010000000000;
    336 : 01500100C5151152;
    337 : -000010000000000;
    338 : -000010000000000;
    339 : 200145A1530A0000154155;
    340 : -000010000000000;
    341 : 01550100C6156157;
    342 : -000010000000000;
    343 : -000010000000000;
    344 : 133DD5B1580A000015915E;
    345 : 015901025715A15B;
    346 : -000010000000000;
    347 : 133B1C215B0A000015C15D;
    348 : -000010000000000;
    349 : -000010000000000;
    350 : 200556A15E0A020015F162;
    351 : 015F0100CA160161;
    352 : -000010000000000;
    353 : -000010000000000;
    354 : 01620100DB163164;
    355 : -000010000000000;
    356 : -000010000000000;
    357 : D0C8341650A0000166167;
    358 : -000010000000000;
    359 : 0167B0CF40168175;
    360 : 01680101EF16916A;
    361 : -000010000000000;
    362 : 016A01045516B174;
    363 : 016B0102EF16C171;
    364 : 016FB0CEC016D170;
    365 : D8D80016D0A000016E16F;
    366 : -000010000000000;
    367 : -000010000000000;
    368 : -000010000000000;
    369 : 1BF18401710A0000172173;
    370 : -000010000000000;
    371 : -000010000000000;
    372 : -000010000000000;
    373 : -000010000000000;
    374 : 01760100C0177178;
    375 : -000010000000000;
    376 : 017BB0CDC01791EE;
    377 : 017BB0CD4017A1B3;
    378 : 017A0101F117B1A2;
    379 : 4FFFD8017B0A000017C18B;
    380 : 2FF956A17C0A000017D17E;
    381 : -000010000000000;
    382 : 017E0101E417F186;
    383 : 33A461217F0A0000180183;
    384 : 01800100C9181182;
    385 : -000010000000000;
    386 : -000010000000000;
    387 : 3FEEB181830A0000184185;
    388 : -000010000000000;
    389 : -000010000000000;
    390 : 3C389AC1860A0000187188;
    391 : -000010000000000;
    392 : 01880101EA18918A;
    393 : -000010000000000;
    394 : -000010000000000;
    395 : 7B6D207FFFFFFC0018C195;
    396 : 018C01019818D18E;
    397 : -000010000000000;
    398 : 5211B5818E0A000018F192;
    399 : 51B0F1418F0A0000190191;
    400 : -000010000000000;
    401 : -000010000000000;
    402 : 0192010199193194;
    403 : -000010000000000;
    404 : -000010000000000;
    405 : D1BC8501950A000019619D;
    406 : 019601019819719A;
    407 : 7DAE2941970A0800198199;
    408 : -000010000000000;
    409 : -000010000000000;
    410 : 019A01019D19B19C;
    411 : -000010000000000;
    412 : -000010000000000;
    413 : D7AB99819D0A000019E1A1;
    414 : 019E01019219F1A0;
    415 : -000010000000000;
    416 : -000010000000000;
    417 : -000010000000000;
    418 : 01A20105141A31B2;
    419 : 01A30103EC1A41A5;
    420 : -000010000000000;
    421 : 01A50103ED1A61AB;
    422 : 8BB1FE81A60A00001A71AA;
    423 : 7C31CC41A70A00001A81A9;
    424 : -000010000000000;
    425 : -000010000000000;
    426 : -000010000000000;
    427 : 01AB0105131AC1AF;
    428 : 01AC0104C81AD1AE;
    429 : -000010000000000;
    430 : -000010000000000;
    431 : 8D2BA341AF0A00001B01B1;
    432 : -000010000000000;
    433 : -000010000000000;
    434 : -000010000000000;
    435 : 01B30101F11B41DF;
    436 : 01B40101981B51C6;
    437 : 01B50100C51B61BF;
    438 : 01B60100C11B71BA;
    439 : 66A279C1B70A00001B81B9;
    440 : -000010000000000;
    441 : -000010000000000;
    442 : 01BA0100C41BB1BC;
    443 : -000010000000000;
    444 : 594E32A1BC0A00001BD1BE;
    445 : -000010000000000;
    446 : -000010000000000;
    447 : 01BF0101291C01C1;
    448 : -000010000000000;
    449 : 01C101012A1C21C5;
    450 : 4868C881C20A00001C31C4;
    451 : -000010000000000;
    452 : -000010000000000;
    453 : -000010000000000;
    454 : 01C601019D1C71D2;
    455 : 01C70101991C81CD;
    456 : 4EBDEEC1C80A00001C91CA;
    457 : -000010000000000;
    458 : E1359581CA0A00001CB1CC;
    459 : -000010000000000;
    460 : -000010000000000;
    461 : C0F357FFFFFFF8001CE1D1;
    462 : 3F854D1FFFFFFE001CF1D0;
    463 : -000010000000000;
    464 : -000010000000000;
    465 : -000010000000000;
    466 : 50363F41D20A00001D31D8;
    467 : 01D30101E41D41D5;
    468 : -000010000000000;
    469 : 01D50101E91D61D7;
    470 : -000010000000000;
    471 : -000010000000000;
    472 : ADCDAE81D80A00001D91DC;
    473 : 950CCA81D90A00001DA1DB;
    474 : -000010000000000;
    475 : -000010000000000;
    476 : AE1EDA7FFFFFF8001DD1DE;
    477 : -000010000000000;
    478 : -000010000000000;
    479 : 01DF0105141E01ED;
    480 : 80048201E00A00001E11EC;
    481 : 01E10103EC1E21E7;
    482 : 01E20101F51E31E6;
    483 : 450D0001E30A00001E41E5;
    484 : -000010000000000;
    485 : -000010000000000;
    486 : -000010000000000;
    487 : 7FF57C3FFFFFF8001E81EB;
    488 : 4747143FFFFFFC001E91EA;
    489 : -000010000000000;
    490 : -000010000000000;
    491 : -000010000000000;
    492 : -000010000000000;
    493 : -000010000000000;
    494 : 01EFB0CE401EF216;
    495 : 01EF0101F51F020B;
    496 : 2F7D3EA1F00A00001F11F2;
    497 : -000010000000000;
    498 : 9011CDFFFFFFF8001F3200;
    499 : 50015841F30A00001F41FB;
    500 : 01F40101971F51F8;
    501 : 01F50100CB1F61F7;
    502 : -000010000000000;
    503 : -000010000000000;
    504 : 3DC1BE21F80A02001F91FA;
    505 : -000010000000000;
    506 : -000010000000000;
    507 : 01FB0101951FC1FD;
    508 : -000010000000000;
    509 : 01FD01019E1FE1FF;
    510 : -000010000000000;
    511 : -000010000000000;
    512 : AE0C9603000A0000201206;
    513 : 97EAA103010A0000202205;
    514 : 9715D003020A0000203204;
    515 : -000010000000000;
    516 : -000010000000000;
    517 : -000010000000000;
    518 : 0306010198207208;
    519 : -000010000000000;
    520 : 030801019D20920A;
    521 : -000010000000000;
    522 : -000010000000000;
    523 : 8088DD7FFFFFF80020C215;
    524 : 7FFFA4030C0A000020D214;
    525 : 030D0104C820E20F;
    526 : -000010000000000;
    527 : 030F010518210213;
    528 : 03100104CB211212;
    529 : -000010000000000;
    530 : -000010000000000;
    531 : -000010000000000;
    532 : -000010000000000;
    533 : -000010000000000;
    534 : -000010000000000;
END;
