WIDTH=64;
DEPTH=512;
ADDRESS_RADIX=UNS;
DATA_RADIX=HEX;
CONTENT BEGIN
    0 : 05000100C0001002;
    1 : -000010000000000;
    2 : 05020101F30030CC;
    3 : 050301017C004069;
    4 : 050401013400505A;
    5 : 05050100F0006035;
    6 : 8004BD860A0000007020;
    7 : 05070100C4008017;
    8 : 056BB0CD40009010;
    9 : 077F6EFC0000A00D;
    10 : 050A0100C100B00C;
    11 : -000010000000000;
    12 : -000010000000000;
    13 : 2F5F8FE40000E00F;
    14 : -000010000000000;
    15 : -000010000000000;
    16 : 1C4A53A0A0000011014;
    17 : 07577B6400012013;
    18 : -000010000000000;
    19 : -000010000000000;
    20 : 05140100C2015016;
    21 : -000010000000000;
    22 : -000010000000000;
    23 : 0577B0CEC001801F;
    24 : 05180A3DA501901C;
    25 : 057BB0CD4001A01B;
    26 : -000010000000000;
    27 : -000010000000000;
    28 : 057FB0CE4001D01E;
    29 : -000010000000000;
    30 : -000010000000000;
    31 : -000010000000000;
    32 : 0563B0CDC002102C;
    33 : 0563B0CD40022027;
    34 : 05220100C9023026;
    35 : 05230100C1024025;
    36 : -000010000000000;
    37 : -000010000000000;
    38 : -000010000000000;
    39 : 05270100C902802B;
    40 : 840B0D280A000002902A;
    41 : -000010000000000;
    42 : -000010000000000;
    43 : -000010000000000;
    44 : 34808C452C0A000002D034;
    45 : 8052952D0A000002E031;
    46 : 052E0100C502F030;
    47 : -000010000000000;
    48 : -000010000000000;
    49 : 05310100CA032033;
    50 : -000010000000000;
    51 : -000010000000000;
    52 : -000010000000000;
    53 : 0577B0CDC003604D;
    54 : 0577B0CD40037040;
    55 : 7E07B385370A000003803F;
    56 : 05380100F903903C;
    57 : 05390100F103A03B;
    58 : -000010000000000;
    59 : -000010000000000;
    60 : 053C0A123503D03E;
    61 : -000010000000000;
    62 : -000010000000000;
    63 : -000010000000000;
    64 : 5AAB7B5400A0000041048;
    65 : 05410A0FEE042045;
    66 : 05420A0040043044;
    67 : -000010000000000;
    68 : -000010000000000;
    69 : AE0AE7C50A0000046047;
    70 : -000010000000000;
    71 : -000010000000000;
    72 : 054801012904904A;
    73 : -000010000000000;
    74 : 054A01012A04B04C;
    75 : -000010000000000;
    76 : -000010000000000;
    77 : 054D0100F104E051;
    78 : 75CFAE008004F050;
    79 : -000010000000000;
    80 : -000010000000000;
    81 : 05510100F8052053;
    82 : -000010000000000;
    83 : 0553010129054057;
    84 : 4005544A0000055056;
    85 : -000010000000000;
    86 : -000010000000000;
    87 : 482AC805570A0000058059;
    88 : -000010000000000;
    89 : -000010000000000;
    90 : 057BB0CEC005B068;
    91 : 057BB0CE4005C065;
    92 : 055C01013805D064;
    93 : 055D0A001E05E05F;
    94 : -000010000000000;
    95 : 055F010137060061;
    96 : -000010000000000;
    97 : 47E10B8000062063;
    98 : -000010000000000;
    99 : -000010000000000;
    100 : -000010000000000;
    101 : 056501013C066067;
    102 : -000010000000000;
    103 : -000010000000000;
    104 : -000010000000000;
    105 : D1CAFF05690A000006A0BB;
    106 : 4D9AC1D6A0A000006B08C;
    107 : 056B0101E106C07B;
    108 : 8DB05EC0A000006D07A;
    109 : 056FB0CDC006E075;
    110 : 056E0101C606F072;
    111 : 056F0101A1070071;
    112 : -000010000000000;
    113 : -000010000000000;
    114 : 05720A0001073074;
    115 : -000010000000000;
    116 : -000010000000000;
    117 : 05750A0018076077;
    118 : -000010000000000;
    119 : 0577B0CE40078079;
    120 : -000010000000000;
    121 : -000010000000000;
    122 : -000010000000000;
    123 : 057BB0CE4007C08B;
    124 : 057C0101F207D084;
    125 : 9800D7D0A000007E081;
    126 : 057FB0CDC007F080;
    127 : -000010000000000;
    128 : -000010000000000;
    129 : A000D890A0000082083;
    130 : -000010000000000;
    131 : -000010000000000;
    132 : 05E7B0CDC0085088;
    133 : 05E7B0CD40086087;
    134 : -000010000000000;
    135 : -000010000000000;
    136 : 1BCEE7C80A000008908A;
    137 : -000010000000000;
    138 : -000010000000000;
    139 : -000010000000000;
    140 : 05EFB0CDC008D0A8;
    141 : 05EFB0CD4008E09B;
    142 : 058E01019008F094;
    143 : 058F01017D090093;
    144 : CB75D15900A0000091092;
    145 : -000010000000000;
    146 : -000010000000000;
    147 : -000010000000000;
    148 : 059401019D095098;
    149 : 1011F3FD950A0000096097;
    150 : -000010000000000;
    151 : -000010000000000;
    152 : 5033A305980A000009909A;
    153 : -000010000000000;
    154 : -000010000000000;
    155 : 5025D2459B0A000009C0A1;
    156 : 059C0101E909D0A0;
    157 : 1009CF159D0A000009E09F;
    158 : -000010000000000;
    159 : -000010000000000;
    160 : -000010000000000;
    161 : 05A101019D0A20A5;
    162 : 05A20101980A30A4;
    163 : -000010000000000;
    164 : -000010000000000;
    165 : ADE00E85A50A00000A60A7;
    166 : -000010000000000;
    167 : -000010000000000;
    168 : 520FE845A80A00000A90B2;
    169 : 05A90101EA0AA0B1;
    170 : 05AA0101900AB0AE;
    171 : 05AB01017F0AC0AD;
    172 : -000010000000000;
    173 : -000010000000000;
    174 : 633892DAE0A00000AF0B0;
    175 : -000010000000000;
    176 : -000010000000000;
    177 : -000010000000000;
    178 : 05B20101970B30B4;
    179 : -000010000000000;
    180 : 7F78447FFFFFF8000B50B8;
    181 : 05F7B0CE800B60B7;
    182 : -000010000000000;
    183 : -000010000000000;
    184 : 05FBB0CE400B90BA;
    185 : -000010000000000;
    186 : -000010000000000;
    187 : 05BB0101990BC0CB;
    188 : 05FFB0CE400BD0CA;
    189 : D83E3305BD0A00000BE0C9;
    190 : 05FFB0CD400BF0C4;
    191 : D73E3785BF0A00000C00C3;
    192 : 05C00101930C10C2;
    193 : -000010000000000;
    194 : -000010000000000;
    195 : -000010000000000;
    196 : D64D1505C40A00000C50C6;
    197 : -000010000000000;
    198 : D779497FFFFFF8000C70C8;
    199 : -000010000000000;
    200 : -000010000000000;
    201 : -000010000000000;
    202 : -000010000000000;
    203 : -000010000000000;
    204 : 05EFB0CE400CD144;
    205 : 05CD0103FB0CE11F;
    206 : 05EFB0CDC00CF0F8;
    207 : 05EFB0CD400D00E1;
    208 : 05D00101F50D10D8;
    209 : 20A1B525D10A00000D20D7;
    210 : 05D20101F40D30D4;
    211 : -000010000000000;
    212 : B479B5D40A00000D50D6;
    213 : -000010000000000;
    214 : -000010000000000;
    215 : -000010000000000;
    216 : 05D80102C20D90DA;
    217 : -000010000000000;
    218 : 05DA0A00000DB0DE;
    219 : 05DB0103100DC0DD;
    220 : -000010000000000;
    221 : -000010000000000;
    222 : 05DE0102C30DF0E0;
    223 : -000010000000000;
    224 : -000010000000000;
    225 : BDDBC7FFFFFFF800E20F1;
    226 : 05E201034A0E30EA;
    227 : 05E30103330E40E7;
    228 : 05E40101F50E50E6;
    229 : -000010000000000;
    230 : -000010000000000;
    231 : 05E70103470E80E9;
    232 : -000010000000000;
    233 : -000010000000000;
    234 : 05EA0103F00EB0EE;
    235 : 14AFFFFFFFFFFF00EC0ED;
    236 : -000010000000000;
    237 : -000010000000000;
    238 : 33EE7EE0A00000EF0F0;
    239 : -000010000000000;
    240 : -000010000000000;
    241 : 80048205F10A00000F20F7;
    242 : 7FFA0F05F20A00000F30F6;
    243 : 05F30103E80F40F5;
    244 : -000010000000000;
    245 : -000010000000000;
    246 : -000010000000000;
    247 : -000010000000000;
    248 : CC0DF87FFFFFF800F910C;
    249 : 07FDDB96000FA105;
    250 : 05FA01034B0FB100;
    251 : 05FB0103330FC0FD;
    252 : -000010000000000;
    253 : 05FD0103470FE0FF;
    254 : -000010000000000;
    255 : -000010000000000;
    256 : 05000A07E6101104;
    257 : 05010A00FE102103;
    258 : -000010000000000;
    259 : -000010000000000;
    260 : -000010000000000;
    261 : 05050101F6106107;
    262 : -000010000000000;
    263 : 05070102C2108109;
    264 : -000010000000000;
    265 : F9162F090A000010A10B;
    266 : -000010000000000;
    267 : -000010000000000;
    268 : 050C0103EC10D11A;
    269 : 050D0103E810E115;
    270 : 42D0E6C50E0A000010F112;
    271 : 050F0101F6110111;
    272 : -000010000000000;
    273 : -000010000000000;
    274 : 05120101F5113114;
    275 : -000010000000000;
    276 : -000010000000000;
    277 : 05150103E9116119;
    278 : 133B1C25160A0000117118;
    279 : -000010000000000;
    280 : -000010000000000;
    281 : -000010000000000;
    282 : 051A0103ED11B11E;
    283 : B38CDA051B0A000011C11D;
    284 : -000010000000000;
    285 : -000010000000000;
    286 : -000010000000000;
    287 : 051F01052A120135;
    288 : 05200A000012112A;
    289 : 05210104ED122123;
    290 : -000010000000000;
    291 : 0563B0CDC0124129;
    292 : 0567B0CD40125126;
    293 : -000010000000000;
    294 : 052601050D127128;
    295 : -000010000000000;
    296 : -000010000000000;
    297 : -000010000000000;
    298 : 4731CAC52A0A000012B134;
    299 : 052B0104C012C12D;
    300 : -000010000000000;
    301 : 052D0104D112E131;
    302 : 27DFF7E000012F130;
    303 : -000010000000000;
    304 : -000010000000000;
    305 : 0573B0CDC0132133;
    306 : -000010000000000;
    307 : -000010000000000;
    308 : -000010000000000;
    309 : 05350A0000136139;
    310 : 0536010757137138;
    311 : -000010000000000;
    312 : -000010000000000;
    313 : 053901077013A13B;
    314 : -000010000000000;
    315 : 400FBBCA000013C143;
    316 : 057FB0CDC013D140;
    317 : 057FB0CD4013E13F;
    318 : -000010000000000;
    319 : -000010000000000;
    320 : 0540010773141142;
    321 : -000010000000000;
    322 : -000010000000000;
    323 : -000010000000000;
    324 : 0567B0CEC0145150;
    325 : 07F70A1C0014614B;
    326 : 05C6BB86B8147148;
    327 : -000010000000000;
    328 : 054801032114914A;
    329 : -000010000000000;
    330 : -000010000000000;
    331 : CEB8BE7FFFFFF8014C14D;
    332 : -000010000000000;
    333 : D4700DFFFFFFF8014E14F;
    334 : -000010000000000;
    335 : -000010000000000;
    336 : 05500103DD151152;
    337 : -000010000000000;
    338 : 0573B0CF40153158;
    339 : 05530103EB154157;
    340 : 1BF184C5540A0000155156;
    341 : -000010000000000;
    342 : -000010000000000;
    343 : -000010000000000;
    344 : 057BB0CFC0159160;
    345 : 05590103EB15A15F;
    346 : 9155A0A000015B15E;
    347 : 055B0A000015C15D;
    348 : -000010000000000;
    349 : -000010000000000;
    350 : -000010000000000;
    351 : -000010000000000;
    352 : -000010000000000;
END;
