WIDTH=64;
DEPTH=512;
ADDRESS_RADIX=UNS;
DATA_RADIX=HEX;
CONTENT BEGIN
    0 : 0A63B0CE400011BA;
    1 : 242A97AA010A0000002133;
    2 : 0A63B0CD40003092;
    3 : 0A030BFB28004039;
    4 : 0A041EBE2B005026;
    5 : 0A050100C400600B;
    6 : 0A060100C0007008;
    7 : -000010000000000;
    8 : 0A080A001700900A;
    9 : -000010000000000;
    10 : -000010000000000;
    11 : 0A0B0A000000C019;
    12 : 0A0C01040000D014;
    13 : 0A0D01038B00E011;
    14 : 0A0E01031B00F010;
    15 : -000010000000000;
    16 : -000010000000000;
    17 : 0A110103DA012013;
    18 : -000010000000000;
    19 : -000010000000000;
    20 : 0A140104B0015016;
    21 : -000010000000000;
    22 : 0A16010757017018;
    23 : -000010000000000;
    24 : -000010000000000;
    25 : 0A190101E101A021;
    26 : 0A1A0101E001B01E;
    27 : 0A1B01013801C01D;
    28 : -000010000000000;
    29 : -000010000000000;
    30 : 0A1E0A5A7C01F020;
    31 : -000010000000000;
    32 : -000010000000000;
    33 : 0A210103FB022025;
    34 : 0A220103FA023024;
    35 : -000010000000000;
    36 : -000010000000000;
    37 : -000010000000000;
    38 : 0A269EF52902702E;
    39 : 0A2701019F02802D;
    40 : 0A2801019C02902A;
    41 : -000010000000000;
    42 : 0A2A2BBAED02B02C;
    43 : -000010000000000;
    44 : -000010000000000;
    45 : -000010000000000;
    46 : 0A2E01034C02F038;
    47 : 0A2F9F13E4030031;
    48 : -000010000000000;
    49 : 0A319E2054032035;
    50 : 0A320102FF033034;
    51 : -000010000000000;
    52 : -000010000000000;
    53 : 0A35EEEB23036037;
    54 : -000010000000000;
    55 : -000010000000000;
    56 : -000010000000000;
    57 : FF587A390A000003A065;
    58 : 0A3A0101E103B04C;
    59 : 0A3B0100C003C03D;
    60 : -000010000000000;
    61 : 0AFD9A5E0003E045;
    62 : 0A7F3B610003F042;
    63 : 0A7FDA7880040041;
    64 : -000010000000000;
    65 : -000010000000000;
    66 : 0A4201011F043044;
    67 : -000010000000000;
    68 : -000010000000000;
    69 : 84823A450A0000046049;
    70 : 0E6EBBA400047048;
    71 : -000010000000000;
    72 : -000010000000000;
    73 : 0A490100C504A04B;
    74 : -000010000000000;
    75 : -000010000000000;
    76 : 0A4C0103F904D05A;
    77 : 0A4D0102C204E053;
    78 : 0A4E0101E904F052;
    79 : 9800E4F0A0000050051;
    80 : -000010000000000;
    81 : -000010000000000;
    82 : -000010000000000;
    83 : 0A530102F9054057;
    84 : 0A540102C3055056;
    85 : -000010000000000;
    86 : -000010000000000;
    87 : 0A5FFAE800058059;
    88 : -000010000000000;
    89 : -000010000000000;
    90 : 0A5A0104EA05B060;
    91 : EADF4A000005C05D;
    92 : -000010000000000;
    93 : EB5D6B000005E05F;
    94 : -000010000000000;
    95 : -000010000000000;
    96 : 0A60010770061062;
    97 : -000010000000000;
    98 : 0A62010773063064;
    99 : -000010000000000;
    100 : -000010000000000;
    101 : 0A650101F506607F;
    102 : 1383460A660A0000067074;
    103 : 834B13A670A000006806D;
    104 : 0A680100BF06906A;
    105 : -000010000000000;
    106 : 5FCB7CA6A0A000006B06C;
    107 : -000010000000000;
    108 : -000010000000000;
    109 : DFA1DBA6D0A000006E071;
    110 : 86CCF3A6E0A000006F070;
    111 : -000010000000000;
    112 : -000010000000000;
    113 : 10009E8A710A0000072073;
    114 : -000010000000000;
    115 : -000010000000000;
    116 : 0A740100C507507A;
    117 : 0A750100C0076077;
    118 : -000010000000000;
    119 : 0A770100C2078079;
    120 : -000010000000000;
    121 : -000010000000000;
    122 : 0A7A01019807B07C;
    123 : -000010000000000;
    124 : 0A7C01019907D07E;
    125 : -000010000000000;
    126 : -000010000000000;
    127 : 768C2BE7F0A000008008B;
    128 : 0A800103F2081086;
    129 : 764EC2FFFFFFFC0082085;
    130 : 0A820103CE083084;
    131 : -000010000000000;
    132 : -000010000000000;
    133 : -000010000000000;
    134 : 1B31E1EFFFFFFF008708A;
    135 : 0A870104F2088089;
    136 : -000010000000000;
    137 : -000010000000000;
    138 : -000010000000000;
    139 : 2421E34A8B0A000008C091;
    140 : 10C6983FFFFFFF0008D090;
    141 : 10BD952A8D0A000008E08F;
    142 : -000010000000000;
    143 : -000010000000000;
    144 : -000010000000000;
    145 : -000010000000000;
    146 : 0AF3B0CDC00930E8;
    147 : 0A9301034A0940B5;
    148 : 0A940100C0095096;
    149 : -000010000000000;
    150 : 0A960101E50970A6;
    151 : 0A9701017C09809F;
    152 : 0A980100C509909C;
    153 : 0A990100C409A09B;
    154 : -000010000000000;
    155 : -000010000000000;
    156 : 0A9C0A0F4609D09E;
    157 : -000010000000000;
    158 : -000010000000000;
    159 : 0A9F0101CD0A00A3;
    160 : 0AA00101C20A10A2;
    161 : -000010000000000;
    162 : -000010000000000;
    163 : 0AA30101E00A40A5;
    164 : -000010000000000;
    165 : -000010000000000;
    166 : 0AA60103330A70AE;
    167 : 0AA70A00010A80AB;
    168 : 0AA80102200A90AA;
    169 : -000010000000000;
    170 : -000010000000000;
    171 : ED3D2AAAB0A00000AC0AD;
    172 : -000010000000000;
    173 : -000010000000000;
    174 : 0AAE0103470AF0B2;
    175 : 0AAF0A00060B00B1;
    176 : -000010000000000;
    177 : -000010000000000;
    178 : 1BBA3F46180B30B4;
    179 : -000010000000000;
    180 : -000010000000000;
    181 : BE522AB50A00000B60CF;
    182 : 0AB60103FB0B70C2;
    183 : 0AB70103F80B80BD;
    184 : 0AB80103D00B90BA;
    185 : -000010000000000;
    186 : 0ABA0103D10BB0BC;
    187 : -000010000000000;
    188 : -000010000000000;
    189 : 8432EFFD0A00000BE0C1;
    190 : 0ABE0103FA0BF0C0;
    191 : -000010000000000;
    192 : -000010000000000;
    193 : -000010000000000;
    194 : 0AC20107700C30C8;
    195 : 0AC30105000C40C7;
    196 : 0AC40104FF0C50C6;
    197 : -000010000000000;
    198 : -000010000000000;
    199 : -000010000000000;
    200 : 0AC80107730C90CC;
    201 : 6DBADF0A00000CA0CB;
    202 : -000010000000000;
    203 : -000010000000000;
    204 : 0ACC0A00000CD0CE;
    205 : -000010000000000;
    206 : -000010000000000;
    207 : 80627BACF0A00000D00DD;
    208 : 75FE55ED00A00000D10D8;
    209 : 14A000AD10A00000D20D5;
    210 : FF4FEBD20A00000D30D4;
    211 : -000010000000000;
    212 : -000010000000000;
    213 : 0AD50103E60D60D7;
    214 : -000010000000000;
    215 : -000010000000000;
    216 : 0AD80104E80D90DC;
    217 : 778C99BFFFFFFC00DA0DB;
    218 : -000010000000000;
    219 : -000010000000000;
    220 : -000010000000000;
    221 : 0ADD0103E90DE0E3;
    222 : 0ADE0103E80DF0E0;
    223 : -000010000000000;
    224 : 133D0EFAE00A00000E10E2;
    225 : -000010000000000;
    226 : -000010000000000;
    227 : 0AE301052A0E40E7;
    228 : 0AE40105290E50E6;
    229 : -000010000000000;
    230 : -000010000000000;
    231 : -000010000000000;
    232 : 8D2426AE80A00000E911A;
    233 : 0AE90103D20EA105;
    234 : 7FBFBFEA0A00000EB0F8;
    235 : 0AEB0100F00EC0F1;
    236 : 0AEC0100C60ED0F0;
    237 : 0AED0100C00EE0EF;
    238 : -000010000000000;
    239 : -000010000000000;
    240 : -000010000000000;
    241 : 94FBEF10A00000F20F5;
    242 : 0AF20A00010F30F4;
    243 : -000010000000000;
    244 : -000010000000000;
    245 : 0AF50101E30F60F7;
    246 : -000010000000000;
    247 : -000010000000000;
    248 : B4287EF80A00000F90FE;
    249 : 0AF90100CB0FA0FD;
    250 : 0AFA0100B60FB0FC;
    251 : -000010000000000;
    252 : -000010000000000;
    253 : -000010000000000;
    254 : 85C434AFE0A00000FF102;
    255 : 0AFF0100C0100101;
    256 : -000010000000000;
    257 : -000010000000000;
    258 : 85EE16B020A0000103104;
    259 : -000010000000000;
    260 : -000010000000000;
    261 : EBEDCB800010610D;
    262 : 0B060A028010710C;
    263 : 0B070A014710810B;
    264 : 0B0801076C10910A;
    265 : -000010000000000;
    266 : -000010000000000;
    267 : -000010000000000;
    268 : -000010000000000;
    269 : BD34BB8D0A000010E115;
    270 : 0B0E0103FB10F112;
    271 : 17AFBB4F0A0000110111;
    272 : -000010000000000;
    273 : -000010000000000;
    274 : 0B12010770113114;
    275 : -000010000000000;
    276 : -000010000000000;
    277 : 0B150104FF116119;
    278 : 1D6DC9FFFFFFFF0117118;
    279 : -000010000000000;
    280 : -000010000000000;
    281 : -000010000000000;
    282 : 0B1A0101E911B124;
    283 : 0B1B0100BD11C11D;
    284 : -000010000000000;
    285 : 0B1D0100C511E11F;
    286 : -000010000000000;
    287 : 0B1F010197120121;
    288 : -000010000000000;
    289 : 129557BB210A0000122123;
    290 : -000010000000000;
    291 : -000010000000000;
    292 : 23F2502B240A0000125132;
    293 : 0B250103E612612B;
    294 : 0B260101FA12712A;
    295 : 22DC26AB270A0000128129;
    296 : -000010000000000;
    297 : -000010000000000;
    298 : -000010000000000;
    299 : 0B2B0104C012C12F;
    300 : 0B2C0103EA12D12E;
    301 : -000010000000000;
    302 : -000010000000000;
    303 : 1226B6CB2F0A0000130131;
    304 : -000010000000000;
    305 : -000010000000000;
    306 : -000010000000000;
    307 : 0B330100C0134135;
    308 : -000010000000000;
    309 : 4FFF2ECB350A000013617D;
    310 : 0B360101E913715E;
    311 : 0B3701019813814F;
    312 : 0B380100C5139146;
    313 : 0B7BB0CD4013A141;
    314 : 0B3A0100C413B13E;
    315 : 0B3B0100C113C13D;
    316 : -000010000000000;
    317 : -000010000000000;
    318 : 2C5218CB3E0A000013F140;
    319 : -000010000000000;
    320 : -000010000000000;
    321 : 2F7C919FFFFFFE00142143;
    322 : -000010000000000;
    323 : 0B430100C1144145;
    324 : -000010000000000;
    325 : -000010000000000;
    326 : 46E727CB460A0000147148;
    327 : -000010000000000;
    328 : 0B6BB0CDC014914C;
    329 : 0B4901012B14A14B;
    330 : -000010000000000;
    331 : -000010000000000;
    332 : 0B4C01013514D14E;
    333 : -000010000000000;
    334 : -000010000000000;
    335 : 3FF32FAB4F0A0000150151;
    336 : -000010000000000;
    337 : 4704EE4B510A0000152159;
    338 : 0B73B0CD40153156;
    339 : 0B530101E4154155;
    340 : -000010000000000;
    341 : -000010000000000;
    342 : 0B5601019C157158;
    343 : -000010000000000;
    344 : -000010000000000;
    345 : 4F97358B590A000015A15B;
    346 : -000010000000000;
    347 : 0B5B0101B115C15D;
    348 : -000010000000000;
    349 : -000010000000000;
    350 : 0B7FB0CDC015F172;
    351 : 0B5F0104C8160167;
    352 : 0B600101F5161166;
    353 : 446F9ACB610A0000162165;
    354 : 42CB5C0B620A0000163164;
    355 : -000010000000000;
    356 : -000010000000000;
    357 : -000010000000000;
    358 : -000010000000000;
    359 : 0B670104C916816D;
    360 : 38EC9A4B680A020016916A;
    361 : -000010000000000;
    362 : 0B6BB0CD4016B16C;
    363 : -000010000000000;
    364 : -000010000000000;
    365 : 422D220B6D0A000016E16F;
    366 : -000010000000000;
    367 : 0B6FB0CD40170171;
    368 : -000010000000000;
    369 : -000010000000000;
    370 : 4021903FFFFFFC00173174;
    371 : -000010000000000;
    372 : 474C02CB740A000017517C;
    373 : 441C6FCB750A0000176179;
    374 : 43F0E14B760A0000177178;
    375 : -000010000000000;
    376 : -000010000000000;
    377 : 46EF27FFFFFFFC0017A17B;
    378 : -000010000000000;
    379 : -000010000000000;
    380 : -000010000000000;
    381 : 0B7FB0CDC017E1A5;
    382 : 0B7E0101F117F19A;
    383 : 7B6D207FFFFFFC0018018D;
    384 : 51B658CB800A0000181186;
    385 : 0BE3B0CD40182185;
    386 : 0B82010196183184;
    387 : -000010000000000;
    388 : -000010000000000;
    389 : -000010000000000;
    390 : 0BE7B0CD4018718A;
    391 : 56E97DBFFFFFFC00188189;
    392 : -000010000000000;
    393 : -000010000000000;
    394 : 0B8A01019818B18C;
    395 : -000010000000000;
    396 : -000010000000000;
    397 : 0BEFB0CD4018E195;
    398 : 0B8E01019818F192;
    399 : 7DAE294B8F0A0800190191;
    400 : -000010000000000;
    401 : -000010000000000;
    402 : D1DDB18B920A0000193194;
    403 : -000010000000000;
    404 : -000010000000000;
    405 : 0B95010198196197;
    406 : -000010000000000;
    407 : 0B9701019D198199;
    408 : -000010000000000;
    409 : -000010000000000;
    410 : 0B9A0103ED19B1A4;
    411 : 0B9B0103EC19C19D;
    412 : -000010000000000;
    413 : 0BFFB0CD4019E1A1;
    414 : 8CF5420B9E0A000019F1A0;
    415 : -000010000000000;
    416 : -000010000000000;
    417 : 858E630BA10A00001A21A3;
    418 : -000010000000000;
    419 : -000010000000000;
    420 : -000010000000000;
    421 : D032768BA50A00001A61B9;
    422 : 0BA60101F11A71B4;
    423 : AE0C960BA70A00001A81AF;
    424 : 9011CDFFFFFFF8001A91AC;
    425 : 7F8D968BA90A00001AA1AB;
    426 : -000010000000000;
    427 : -000010000000000;
    428 : 97EAA10BAC0A00001AD1AE;
    429 : -000010000000000;
    430 : -000010000000000;
    431 : 0BAF0101951B01B1;
    432 : -000010000000000;
    433 : CFAD780BB10A00001B21B3;
    434 : -000010000000000;
    435 : -000010000000000;
    436 : 8008DC7FFFFFF8001B51B8;
    437 : 7FFFA40BB50A00001B61B7;
    438 : -000010000000000;
    439 : -000010000000000;
    440 : -000010000000000;
    441 : -000010000000000;
    442 : 400BBA4A00001BB1DE;
    443 : 0BBB0100DD1BC1C7;
    444 : 0BBC0100C71BD1BE;
    445 : -000010000000000;
    446 : 0BFFB0CEC01BF1C6;
    447 : 0BBF0A20841C01C5;
    448 : 0BC00A20101C11C2;
    449 : -000010000000000;
    450 : 0BC38A20841C31C4;
    451 : -000010000000000;
    452 : -000010000000000;
    453 : -000010000000000;
    454 : -000010000000000;
    455 : 0BC70103991C81D5;
    456 : 0BEBB0CEC01C91D4;
    457 : 280BC90A00001CA1D3;
    458 : 0BCA1A01041CB1CC;
    459 : -000010000000000;
    460 : 0BCC1A0A0F1CD1CE;
    461 : -000010000000000;
    462 : 0BCE0103491CF1D0;
    463 : -000010000000000;
    464 : 0BF83B22B01D11D2;
    465 : -000010000000000;
    466 : -000010000000000;
    467 : -000010000000000;
    468 : -000010000000000;
    469 : 0BD50A01381D61D7;
    470 : -000010000000000;
    471 : 0BF7B0CEC01D81DB;
    472 : 7BF82E00001D91DA;
    473 : -000010000000000;
    474 : -000010000000000;
    475 : 7FFB2E00001DC1DD;
    476 : -000010000000000;
    477 : -000010000000000;
    478 : D0C8C0BDE0A00001DF1E0;
    479 : -000010000000000;
    480 : 0BE00101F31E11E2;
    481 : -000010000000000;
    482 : 0BE20103EB1E31EA;
    483 : 0BE30102EF1E41E7;
    484 : D8D800BE40A00001E51E6;
    485 : -000010000000000;
    486 : -000010000000000;
    487 : 1BF184CBE70A00001E81E9;
    488 : -000010000000000;
    489 : -000010000000000;
    490 : -000010000000000;
END;
