WIDTH=64;
DEPTH=512;
ADDRESS_RADIX=UNS;
DATA_RADIX=HEX;
CONTENT BEGIN
    0 : 242A98B3000A000000116E;
    1 : 800017010A00000020B1;
    2 : 13020100F0003042;
    3 : 1363B0CEC0004041;
    4 : 13040100C4005020;
    5 : 103F7358A0000006013;
    6 : 13060100C0007008;
    7 : -000010000000000;
    8 : 137F6EFC0000900E;
    9 : 13090100C100A00D;
    10 : 136BB0CD4000B00C;
    11 : -000010000000000;
    12 : -000010000000000;
    13 : -000010000000000;
    14 : 136FB0CDC000F012;
    15 : 170F2FCC00010011;
    16 : -000010000000000;
    17 : -000010000000000;
    18 : -000010000000000;
    19 : 1373B0CDC001401D;
    20 : 13140100C0015016;
    21 : -000010000000000;
    22 : 7ADD5BD60A000001701A;
    23 : 3772B3B70A0000018019;
    24 : -000010000000000;
    25 : -000010000000000;
    26 : 137BB0CD4001B01C;
    27 : -000010000000000;
    28 : -000010000000000;
    29 : 131D0100BA01E01F;
    30 : -000010000000000;
    31 : -000010000000000;
    32 : 1363B0CD4002102E;
    33 : 13210100C902202D;
    34 : 13EBEE200002302A;
    35 : 1323FB5D58024027;
    36 : 13240100C5025026;
    37 : -000010000000000;
    38 : -000010000000000;
    39 : 136F6ACF00028029;
    40 : -000010000000000;
    41 : -000010000000000;
    42 : 61DB3FA8A000002B02C;
    43 : -000010000000000;
    44 : -000010000000000;
    45 : -000010000000000;
    46 : 132E0100C502F03A;
    47 : 7920FFEF0A0000030035;
    48 : 13300A4DBE031034;
    49 : 13310A4DBE032033;
    50 : -000010000000000;
    51 : -000010000000000;
    52 : -000010000000000;
    53 : 1377B0CDC0036039;
    54 : 79DFD7F60A0000037038;
    55 : -000010000000000;
    56 : -000010000000000;
    57 : -000010000000000;
    58 : 133A0100C903B040;
    59 : 133B0A3DA503C03D;
    60 : -000010000000000;
    61 : 133D0A643003E03F;
    62 : -000010000000000;
    63 : -000010000000000;
    64 : -000010000000000;
    65 : -000010000000000;
    66 : 1363B0CE40043090;
    67 : 13430A0002044053;
    68 : 13440A0000045050;
    69 : 134501016F046047;
    70 : -000010000000000;
    71 : 1367B0CDC004804F;
    72 : 134801042D04904C;
    73 : 134901022004A04B;
    74 : -000010000000000;
    75 : -000010000000000;
    76 : 136FB0CD4004D04E;
    77 : -000010000000000;
    78 : -000010000000000;
    79 : -000010000000000;
    80 : 1350010142051052;
    81 : -000010000000000;
    82 : -000010000000000;
    83 : 13530101E1054071;
    84 : 1377B0CDC0055064;
    85 : 1377B0CD4005605D;
    86 : 13560AFDE305705A;
    87 : 1357010134058059;
    88 : -000010000000000;
    89 : -000010000000000;
    90 : 135A0100F905B05C;
    91 : -000010000000000;
    92 : -000010000000000;
    93 : 135D0AFE6C05E061;
    94 : 135E01013405F060;
    95 : -000010000000000;
    96 : -000010000000000;
    97 : 13610100F1062063;
    98 : -000010000000000;
    99 : -000010000000000;
    100 : 136401018306506A;
    101 : 1365010138066069;
    102 : 13660100F1067068;
    103 : -000010000000000;
    104 : -000010000000000;
    105 : -000010000000000;
    106 : 136A0101A106B06E;
    107 : 136B01018506C06D;
    108 : -000010000000000;
    109 : -000010000000000;
    110 : 136E0A75F706F070;
    111 : -000010000000000;
    112 : -000010000000000;
    113 : 1373B0CDC0072081;
    114 : 1373B0CD4007307A;
    115 : 137301034A074077;
    116 : 953FD6A0000075076;
    117 : -000010000000000;
    118 : -000010000000000;
    119 : F3771E8000078079;
    120 : -000010000000000;
    121 : -000010000000000;
    122 : 137A01034A07B07E;
    123 : 137B0102C207C07D;
    124 : -000010000000000;
    125 : -000010000000000;
    126 : 137E0103FB07F080;
    127 : -000010000000000;
    128 : -000010000000000;
    129 : 138101034C082089;
    130 : 94FBFC20A0000083086;
    131 : 1383EFD647084085;
    132 : -000010000000000;
    133 : -000010000000000;
    134 : A801F860A0000087088;
    135 : -000010000000000;
    136 : -000010000000000;
    137 : 13890103F808A08D;
    138 : 138A0103E808B08C;
    139 : -000010000000000;
    140 : -000010000000000;
    141 : 138D0103FB08E08F;
    142 : -000010000000000;
    143 : -000010000000000;
    144 : 13F3B0CEC00910A6;
    145 : 13910103990920A1;
    146 : 2813920A000009309C;
    147 : 1393010349094099;
    148 : 139401015F095098;
    149 : 139501013C096097;
    150 : -000010000000000;
    151 : -000010000000000;
    152 : -000010000000000;
    153 : 13B93EA2B809A09B;
    154 : -000010000000000;
    155 : -000010000000000;
    156 : 139C01016009D0A0;
    157 : 40139D8A000009E09F;
    158 : -000010000000000;
    159 : -000010000000000;
    160 : -000010000000000;
    161 : 73A12E00000A20A5;
    162 : 13A20A01380A30A4;
    163 : -000010000000000;
    164 : -000010000000000;
    165 : -000010000000000;
    166 : 13E7B0CFC00A70B0;
    167 : 13A70103990A80A9;
    168 : -000010000000000;
    169 : 13A90103F10AA0AF;
    170 : 157AA0A00000AB0AE;
    171 : 17AB0A00000AC0AD;
    172 : -000010000000000;
    173 : -000010000000000;
    174 : -000010000000000;
    175 : -000010000000000;
    176 : -000010000000000;
    177 : 13B10101E90B20F9;
    178 : 13B20100C00B30B4;
    179 : -000010000000000;
    180 : 100193FB40A00000B50C8;
    181 : 13B50100F90B60C5;
    182 : 803917B60A00000B70B8;
    183 : -000010000000000;
    184 : 13FBB0CDC00B90C0;
    185 : 840B13B90A00000BA0BD;
    186 : 13FBB0CD400BB0BC;
    187 : -000010000000000;
    188 : -000010000000000;
    189 : 13BD0100F70BE0BF;
    190 : -000010000000000;
    191 : -000010000000000;
    192 : 8060FFC00A00000C10C2;
    193 : -000010000000000;
    194 : 13E3B0CE400C30C4;
    195 : -000010000000000;
    196 : -000010000000000;
    197 : 13C50101E70C60C7;
    198 : -000010000000000;
    199 : -000010000000000;
    200 : 10E06093C80A00000C90E8;
    201 : 7FC4A5FC90A00000CA0D9;
    202 : 13CA0101C30CB0D2;
    203 : 13EBB0CDC00CC0CF;
    204 : 13EFB0CD400CD0CE;
    205 : -000010000000000;
    206 : -000010000000000;
    207 : 13CF01019D0D00D1;
    208 : -000010000000000;
    209 : -000010000000000;
    210 : 5FF8BD3D20A00000D30D6;
    211 : 13D30101E80D40D5;
    212 : -000010000000000;
    213 : -000010000000000;
    214 : 13D60101E40D70D8;
    215 : -000010000000000;
    216 : -000010000000000;
    217 : 13FBB0CDC00DA0E1;
    218 : 13DA0100C60DB0DE;
    219 : 13DB0100C40DC0DD;
    220 : -000010000000000;
    221 : -000010000000000;
    222 : 13FFB0CD400DF0E0;
    223 : -000010000000000;
    224 : -000010000000000;
    225 : DE70BB3E10A00000E20E5;
    226 : 890AFDBE20A00000E30E4;
    227 : -000010000000000;
    228 : -000010000000000;
    229 : 13E50101380E60E7;
    230 : -000010000000000;
    231 : -000010000000000;
    232 : 10E0861FFFFFFF000E90EA;
    233 : -000010000000000;
    234 : 1FFF4533EA0A00000EB0F2;
    235 : 13EBB0CD400EC0EF;
    236 : 13EC0100C90ED0EE;
    237 : -000010000000000;
    238 : -000010000000000;
    239 : 13EFB0CDC00F00F1;
    240 : -000010000000000;
    241 : -000010000000000;
    242 : 13F3B0CDC00F30F6;
    243 : 24064BB3F30A00000F40F5;
    244 : -000010000000000;
    245 : -000010000000000;
    246 : 23CF9413F60A00000F70F8;
    247 : -000010000000000;
    248 : -000010000000000;
    249 : 800721BF90A00000FA137;
    250 : 13FBB0CDC00FB124;
    251 : 13FBB0CD400FC111;
    252 : 13FC0103F10FD10A;
    253 : 13FD0103C00FE103;
    254 : 13FE0101F60FF102;
    255 : 13FF0101F4100101;
    256 : -000010000000000;
    257 : -000010000000000;
    258 : -000010000000000;
    259 : 13030103D1104107;
    260 : 13040103CF105106;
    261 : -000010000000000;
    262 : -000010000000000;
    263 : 13070103E8108109;
    264 : -000010000000000;
    265 : -000010000000000;
    266 : 130A0104F210B110;
    267 : 7F47EBFFFFFFFC010C10F;
    268 : BE269F8C0A000010D10E;
    269 : -000010000000000;
    270 : -000010000000000;
    271 : -000010000000000;
    272 : -000010000000000;
    273 : FF4FFB910A0000112119;
    274 : 13120104C2113118;
    275 : 13130103F0114115;
    276 : -000010000000000;
    277 : BE2753950A0000116117;
    278 : -000010000000000;
    279 : -000010000000000;
    280 : -000010000000000;
    281 : 14A0013190A000011A11F;
    282 : 131A01040611B11E;
    283 : 131B0101F311C11D;
    284 : -000010000000000;
    285 : -000010000000000;
    286 : -000010000000000;
    287 : 14AFFFFFFFFFFF0120121;
    288 : -000010000000000;
    289 : 13210103ED122123;
    290 : -000010000000000;
    291 : -000010000000000;
    292 : 13240104FD125136;
    293 : CC4FFB250A000012612D;
    294 : 13260103D4127128;
    295 : -000010000000000;
    296 : 132801041B12912A;
    297 : -000010000000000;
    298 : 136BB0CEC012B12C;
    299 : -000010000000000;
    300 : -000010000000000;
    301 : 136FB0CE4012E135;
    302 : 132E0103F312F132;
    303 : F964F3AF0A0000130131;
    304 : -000010000000000;
    305 : -000010000000000;
    306 : 13320104BA133134;
    307 : -000010000000000;
    308 : -000010000000000;
    309 : -000010000000000;
    310 : -000010000000000;
    311 : 1377B0CE40138163;
    312 : 24025C33380A0000139156;
    313 : DB86BBB390A000013A147;
    314 : 137BB0CD4013B140;
    315 : 133B0103E913C13F;
    316 : 133C0103E113D13E;
    317 : -000010000000000;
    318 : -000010000000000;
    319 : -000010000000000;
    320 : 1363B0CDC0141144;
    321 : 13410103E1142143;
    322 : -000010000000000;
    323 : -000010000000000;
    324 : D078753440A0000145146;
    325 : -000010000000000;
    326 : -000010000000000;
    327 : 1367B0CDC014814F;
    328 : 13480101F714914C;
    329 : F0F0013490A000014A14B;
    330 : -000010000000000;
    331 : -000010000000000;
    332 : 133580F34C0A000014D14E;
    333 : -000010000000000;
    334 : -000010000000000;
    335 : 133F14334F0A0000150153;
    336 : 13500104A2151152;
    337 : -000010000000000;
    338 : -000010000000000;
    339 : 167CCB33530A0000154155;
    340 : -000010000000000;
    341 : -000010000000000;
    342 : 1377B0CD4015715C;
    343 : 135701058515815B;
    344 : 13580103E015915A;
    345 : -000010000000000;
    346 : -000010000000000;
    347 : -000010000000000;
    348 : 137FB0CDC015D162;
    349 : 135D0104C315E161;
    350 : 135E0102A015F160;
    351 : -000010000000000;
    352 : -000010000000000;
    353 : -000010000000000;
    354 : -000010000000000;
    355 : 13630102EF164169;
    356 : 1367B0CEC0165168;
    357 : D8D8013650A0000166167;
    358 : -000010000000000;
    359 : -000010000000000;
    360 : -000010000000000;
    361 : 1BF184D3690A000016A16B;
    362 : -000010000000000;
    363 : 20549E736B0A000016C16D;
    364 : -000010000000000;
    365 : -000010000000000;
    366 : 2FFF4D936E0A000016F170;
    367 : -000010000000000;
    368 : 1373B0CDC01711DC;
    369 : 1373B0CD401721A7;
    370 : 13720101F117319C;
    371 : 1373010198174189;
    372 : 3404FB53740A0200175182;
    373 : 30748BF3750A000017617B;
    374 : 3009E333760A0000177178;
    375 : -000010000000000;
    376 : 13780100BF17917A;
    377 : -000010000000000;
    378 : -000010000000000;
    379 : 307A9B137B0A000017C17F;
    380 : 30784C9FFFFFFE0017D17E;
    381 : -000010000000000;
    382 : -000010000000000;
    383 : 137F0100BE180181;
    384 : -000010000000000;
    385 : -000010000000000;
    386 : 138201012A183188;
    387 : 7D9EF8D3830A0400184187;
    388 : 13840100F8185186;
    389 : -000010000000000;
    390 : -000010000000000;
    391 : -000010000000000;
    392 : -000010000000000;
    393 : D1DDB193890A000018A197;
    394 : 51CD28538A0A000018B190;
    395 : 3F59A8D38B0A020018C18D;
    396 : -000010000000000;
    397 : 45ED4C138D0A000018E18F;
    398 : -000010000000000;
    399 : -000010000000000;
    400 : 7FDD3A53900A0000191194;
    401 : 57B748D3910A0000192193;
    402 : -000010000000000;
    403 : -000010000000000;
    404 : 139401019D195196;
    405 : -000010000000000;
    406 : -000010000000000;
    407 : 139701019A19819B;
    408 : DAA2E893980A000019919A;
    409 : -000010000000000;
    410 : -000010000000000;
    411 : -000010000000000;
    412 : 139C01051419D1A6;
    413 : 80008C939D0A000019E1A5;
    414 : 7FFD86939E0A000019F1A4;
    415 : 47325F139F0A00001A01A3;
    416 : 472F447FFFFFFC001A11A2;
    417 : -000010000000000;
    418 : -000010000000000;
    419 : -000010000000000;
    420 : -000010000000000;
    421 : -000010000000000;
    422 : -000010000000000;
    423 : 13A70101F11A81CB;
    424 : 13A80101981A91B6;
    425 : 342A4F93A90A02001AA1AF;
    426 : 13AA0100C01AB1AC;
    427 : -000010000000000;
    428 : 13AC0100C71AD1AE;
    429 : -000010000000000;
    430 : -000010000000000;
    431 : 13AF0101291B01B1;
    432 : -000010000000000;
    433 : 13B101012A1B21B5;
    434 : 4868C893B20A00001B31B4;
    435 : -000010000000000;
    436 : -000010000000000;
    437 : -000010000000000;
    438 : 13B601019D1B71C2;
    439 : 13B70101991B81BD;
    440 : 43ED2613B80A00001B91BA;
    441 : -000010000000000;
    442 : E1331593BA0A00001BB1BC;
    443 : -000010000000000;
    444 : -000010000000000;
    445 : C0F357FFFFFFF8001BE1C1;
    446 : 3BEC5933BE0A00001BF1C0;
    447 : -000010000000000;
    448 : -000010000000000;
    449 : -000010000000000;
    450 : 13C20101E41C31C4;
    451 : -000010000000000;
    452 : 50DC233FFFFFFC001C51C8;
    453 : 13C50101EA1C61C7;
    454 : -000010000000000;
    455 : -000010000000000;
    456 : 13C80101F01C91CA;
    457 : -000010000000000;
    458 : -000010000000000;
    459 : 13CB0105141CC1DB;
    460 : 13CC0103EC1CD1D4;
    461 : 13CD0101F51CE1D3;
    462 : 450D0013CE0A00001CF1D2;
    463 : 13CF0101F41D01D1;
    464 : -000010000000000;
    465 : -000010000000000;
    466 : -000010000000000;
    467 : -000010000000000;
    468 : 80048213D40A00001D51DA;
    469 : 7FF57C3FFFFFF8001D61D9;
    470 : 4747143FFFFFFC001D71D8;
    471 : -000010000000000;
    472 : -000010000000000;
    473 : -000010000000000;
    474 : -000010000000000;
    475 : -000010000000000;
    476 : 13FFB0CE401DD206;
    477 : 4FFF65FFFFFFFC001DE1F3;
    478 : 3FF1361FFFFFFE001DF1E4;
    479 : 13DF0100CB1E01E3;
    480 : 13E00100BF1E11E2;
    481 : -000010000000000;
    482 : -000010000000000;
    483 : -000010000000000;
    484 : 4731CAD3E40A00001E51EC;
    485 : 46D23BD3E50A00001E61EB;
    486 : 40131053E60A00001E71E8;
    487 : -000010000000000;
    488 : 13E80104E41E91EA;
    489 : -000010000000000;
    490 : -000010000000000;
    491 : -000010000000000;
    492 : 4FB91313EC0A00001ED1EE;
    493 : -000010000000000;
    494 : 4FE6BB53EE0A00001EF1F2;
    495 : 13EF0103A31F01F1;
    496 : -000010000000000;
    497 : -000010000000000;
    498 : -000010000000000;
    499 : 13F30101981F41F5;
    500 : -000010000000000;
    501 : 13F50101F21F61FF;
    502 : D0B1E2FFFFFFF8001F71FE;
    503 : 7F78447FFFFFF8001F81FB;
    504 : 13F80101991F91FA;
    505 : -000010000000000;
    506 : -000010000000000;
    507 : 13FB01019E1FC1FD;
    508 : -000010000000000;
    509 : -000010000000000;
    510 : -000010000000000;
    511 : 800D9893FF0A0000200205;
    512 : 13000103F5201204;
    513 : 7FEAC113010A0000202203;
    514 : -000010000000000;
    515 : -000010000000000;
    516 : -000010000000000;
    517 : -000010000000000;
    518 : -000010000000000;
END;
