WIDTH=64;
DEPTH=512;
ADDRESS_RADIX=UNS;
DATA_RADIX=HEX;
CONTENT BEGIN
    0 : 242A98A3000A0000001150;
    1 : 03010103D10020E5;
    2 : 0363B0CE400030C0;
    3 : 0363B0CD4000405D;
    4 : 03040100C4005026;
    5 : F6330F050A0000006013;
    6 : 03060100C0007008;
    7 : -000010000000000;
    8 : 037F6EFC0000900E;
    9 : 03090100C100A00D;
    10 : 030A0A001700B00C;
    11 : -000010000000000;
    12 : -000010000000000;
    13 : -000010000000000;
    14 : 030E0100C100F012;
    15 : 27FF7A0000010011;
    16 : -000010000000000;
    17 : -000010000000000;
    18 : -000010000000000;
    19 : FFE7197FFFFFF8001401D;
    20 : 3F8DDA7140A002001501C;
    21 : 10FF55F150A0000016019;
    22 : 03160100BB017018;
    23 : -000010000000000;
    24 : -000010000000000;
    25 : 3AE6547190A000001A01B;
    26 : -000010000000000;
    27 : -000010000000000;
    28 : -000010000000000;
    29 : 11475B7FFFFFFF0001E021;
    30 : 031E0100BF01F020;
    31 : -000010000000000;
    32 : -000010000000000;
    33 : 03210100C0022023;
    34 : -000010000000000;
    35 : 218DC563230A0000024025;
    36 : -000010000000000;
    37 : -000010000000000;
    38 : 03260101E5027044;
    39 : 03FF9A5E00028035;
    40 : 037F1B7800029030;
    41 : 03290100F102A02D;
    42 : 032A0100F002B02C;
    43 : -000010000000000;
    44 : -000010000000000;
    45 : 032D01017E02E02F;
    46 : -000010000000000;
    47 : -000010000000000;
    48 : 033001011F031032;
    49 : -000010000000000;
    50 : 0332010120033034;
    51 : -000010000000000;
    52 : -000010000000000;
    53 : 13844963350A000003603D;
    54 : FF1D8FB60A000003703A;
    55 : 03370100C9038039;
    56 : -000010000000000;
    57 : -000010000000000;
    58 : 834B13B3A0A000003B03C;
    59 : -000010000000000;
    60 : -000010000000000;
    61 : 1FEFFC0FFFFFFF0003E041;
    62 : 033E0100C503F040;
    63 : -000010000000000;
    64 : -000010000000000;
    65 : 20685283410A0000042043;
    66 : -000010000000000;
    67 : -000010000000000;
    68 : 03440A000004504E;
    69 : 034501038B04604D;
    70 : 034601031B04704A;
    71 : 0347010202048049;
    72 : -000010000000000;
    73 : -000010000000000;
    74 : 034A01033E04B04C;
    75 : -000010000000000;
    76 : -000010000000000;
    77 : -000010000000000;
    78 : 034E0103C004F056;
    79 : 034F0101F5050053;
    80 : A000F580A0000051052;
    81 : -000010000000000;
    82 : -000010000000000;
    83 : 937FF0A0000054055;
    84 : -000010000000000;
    85 : -000010000000000;
    86 : 03560103D005705A;
    87 : 6F1C9B7570A0000058059;
    88 : -000010000000000;
    89 : -000010000000000;
    90 : 234033DB3A800005B05C;
    91 : -000010000000000;
    92 : -000010000000000;
    93 : 035D0101E505E091;
    94 : 037FB0CDC005F078;
    95 : 035F0AFFB806006F;
    96 : 03600A0002061068;
    97 : 03610A0001062065;
    98 : 03620A0000063064;
    99 : -000010000000000;
    100 : -000010000000000;
    101 : 036501013E066067;
    102 : -000010000000000;
    103 : -000010000000000;
    104 : 03680A00FE06906C;
    105 : 03690101C606A06B;
    106 : -000010000000000;
    107 : -000010000000000;
    108 : 036C0100C506D06E;
    109 : -000010000000000;
    110 : -000010000000000;
    111 : 036F0100C0070071;
    112 : -000010000000000;
    113 : 037101017C072075;
    114 : B2E2FBF20A0000073074;
    115 : -000010000000000;
    116 : -000010000000000;
    117 : 03750101C7076077;
    118 : -000010000000000;
    119 : -000010000000000;
    120 : 03780100F0079084;
    121 : 03790100C507A07F;
    122 : 037A0100C007B07C;
    123 : -000010000000000;
    124 : 037C0100C407D07E;
    125 : -000010000000000;
    126 : -000010000000000;
    127 : 739E0F7F0A0000080081;
    128 : -000010000000000;
    129 : 03810100CA082083;
    130 : -000010000000000;
    131 : -000010000000000;
    132 : 038401017C08508C;
    133 : 03E57E34C0086089;
    134 : 03860A0B5B087088;
    135 : -000010000000000;
    136 : -000010000000000;
    137 : 03890100FC08A08B;
    138 : -000010000000000;
    139 : -000010000000000;
    140 : 038C0101E108D090;
    141 : 10B07F138D0A000008E08F;
    142 : -000010000000000;
    143 : -000010000000000;
    144 : -000010000000000;
    145 : 03910102C20920AB;
    146 : 03F3B0CDC009309C;
    147 : 03930101F509409B;
    148 : 03940101F2095098;
    149 : A000F9D0A0000096097;
    150 : -000010000000000;
    151 : -000010000000000;
    152 : 03980101F309909A;
    153 : -000010000000000;
    154 : -000010000000000;
    155 : -000010000000000;
    156 : 039C0101F309D0A4;
    157 : 9800F9D0A000009E0A1;
    158 : 039E0A001409F0A0;
    159 : -000010000000000;
    160 : -000010000000000;
    161 : A800FA10A00000A20A3;
    162 : -000010000000000;
    163 : -000010000000000;
    164 : 45FF11FA40A00000A50A8;
    165 : 03A50101F50A60A7;
    166 : -000010000000000;
    167 : -000010000000000;
    168 : 22DC26A3A80A00000A90AA;
    169 : -000010000000000;
    170 : -000010000000000;
    171 : 03EBB0CDC00AC0B7;
    172 : 03AC0A00010AD0B0;
    173 : 03AD0103260AE0AF;
    174 : -000010000000000;
    175 : -000010000000000;
    176 : 03B00102C30B10B4;
    177 : 37FFD2A80000B20B3;
    178 : -000010000000000;
    179 : -000010000000000;
    180 : 03B40102F80B50B6;
    181 : -000010000000000;
    182 : -000010000000000;
    183 : 7E1BF13B70A00000B80BF;
    184 : 03B801034B0B90BC;
    185 : 03B90103330BA0BB;
    186 : -000010000000000;
    187 : -000010000000000;
    188 : 03BC0103C00BD0BE;
    189 : -000010000000000;
    190 : -000010000000000;
    191 : -000010000000000;
    192 : 03C70A04080C10D0;
    193 : 03C10A00130C20C3;
    194 : -000010000000000;
    195 : 03C30A002C0C40C5;
    196 : -000010000000000;
    197 : 03C50100DD0C60C9;
    198 : 03C78A20840C70C8;
    199 : -000010000000000;
    200 : -000010000000000;
    201 : 03EBB0CEC00CA0CF;
    202 : 03CA1A01040CB0CC;
    203 : -000010000000000;
    204 : 03CC1A1B940CD0CE;
    205 : -000010000000000;
    206 : -000010000000000;
    207 : -000010000000000;
    208 : 03D00100F50D10D2;
    209 : -000010000000000;
    210 : 03D201010C0D30D8;
    211 : 4003D34A00000D40D7;
    212 : 03F7B0CEC00D50D6;
    213 : -000010000000000;
    214 : -000010000000000;
    215 : -000010000000000;
    216 : 03FBB0CEC00D90E4;
    217 : 07FB0A1C000DA0DF;
    218 : 03DA0103490DB0DC;
    219 : -000010000000000;
    220 : 03FC3EA2B80DD0DE;
    221 : -000010000000000;
    222 : -000010000000000;
    223 : A90040BDF0A00000E00E1;
    224 : -000010000000000;
    225 : D8D8003E10A00000E20E3;
    226 : -000010000000000;
    227 : -000010000000000;
    228 : -000010000000000;
    229 : 03E50A00000E60F9;
    230 : 03E7B0CDC00E70F8;
    231 : 03E70104000E80E9;
    232 : -000010000000000;
    233 : 03EBB0CD400EA0F1;
    234 : 03EA0107570EB0F0;
    235 : 03EB0105430EC0EF;
    236 : 03EC0104B00ED0EE;
    237 : -000010000000000;
    238 : -000010000000000;
    239 : -000010000000000;
    240 : -000010000000000;
    241 : 03F10104ED0F20F3;
    242 : -000010000000000;
    243 : 03F30106690F40F7;
    244 : 03F40105300F50F6;
    245 : -000010000000000;
    246 : -000010000000000;
    247 : -000010000000000;
    248 : -000010000000000;
    249 : E3FD4F00000FA117;
    250 : 03FA0103FB0FB116;
    251 : 03FB0103F80FC105;
    252 : 03FFB0CD400FD104;
    253 : 33FDAE20000FE0FF;
    254 : -000010000000000;
    255 : 3BFFBA0000100101;
    256 : -000010000000000;
    257 : 6BC7AA4000102103;
    258 : -000010000000000;
    259 : -000010000000000;
    260 : -000010000000000;
    261 : 0387CFE48010610F;
    262 : 0367B0CDC010710E;
    263 : 03070103FA10810B;
    264 : 035BDB31C010910A;
    265 : -000010000000000;
    266 : -000010000000000;
    267 : 030B0A00F110C10D;
    268 : -000010000000000;
    269 : -000010000000000;
    270 : -000010000000000;
    271 : 036FB0CDC0110115;
    272 : 137EEB2800111114;
    273 : 03B58F8A00112113;
    274 : -000010000000000;
    275 : -000010000000000;
    276 : -000010000000000;
    277 : -000010000000000;
    278 : -000010000000000;
    279 : 0377B0CE40118147;
    280 : 03180104F1119130;
    281 : 133D0EF3190A000011A127;
    282 : 031A0103F911B120;
    283 : 031B0103E811C11D;
    284 : -000010000000000;
    285 : 031D0103E911E11F;
    286 : -000010000000000;
    287 : -000010000000000;
    288 : 0363B0CDC0121124;
    289 : 0363B0CD40122123;
    290 : -000010000000000;
    291 : -000010000000000;
    292 : 03240104BF125126;
    293 : -000010000000000;
    294 : -000010000000000;
    295 : 133F1433270A0000128129;
    296 : -000010000000000;
    297 : 1659CC23290A000012A12D;
    298 : 032A0103EA12B12C;
    299 : -000010000000000;
    300 : -000010000000000;
    301 : 17D055732D0A000012E12F;
    302 : -000010000000000;
    303 : -000010000000000;
    304 : 0373B0CDC013113E;
    305 : 0373B0CD40132137;
    306 : 241FD7E3320A0000133136;
    307 : 0333010770134135;
    308 : -000010000000000;
    309 : -000010000000000;
    310 : -000010000000000;
    311 : 033701077013813B;
    312 : 24111DA3380A020013913A;
    313 : -000010000000000;
    314 : -000010000000000;
    315 : 033B01077313C13D;
    316 : -000010000000000;
    317 : -000010000000000;
    318 : 4047BF0A000013F144;
    319 : 2737FFCA0000140141;
    320 : -000010000000000;
    321 : 034101078E142143;
    322 : -000010000000000;
    323 : -000010000000000;
    324 : 24026AC3440A0000145146;
    325 : -000010000000000;
    326 : -000010000000000;
    327 : 03470103ED14814F;
    328 : 036BB0CF4014914E;
    329 : 036BB0CEC014A14B;
    330 : -000010000000000;
    331 : 1BF184C34B0A000014C14D;
    332 : -000010000000000;
    333 : -000010000000000;
    334 : -000010000000000;
    335 : -000010000000000;
    336 : 03500100C0151152;
    337 : -000010000000000;
    338 : 03520101F51531BC;
    339 : 4FFFD803530A000015417F;
    340 : 2FFF6903540A0000155156;
    341 : -000010000000000;
    342 : 03560101E9157174;
    343 : 45FC8B43570A0000158165;
    344 : 03580100C5159160;
    345 : 03590100C415A15D;
    346 : 035A0100C115B15C;
    347 : -000010000000000;
    348 : -000010000000000;
    349 : 037FB0CD4015E15F;
    350 : -000010000000000;
    351 : -000010000000000;
    352 : 036001019C161162;
    353 : -000010000000000;
    354 : 0363B0CDC0163164;
    355 : -000010000000000;
    356 : -000010000000000;
    357 : 4704F4C3650A000016616D;
    358 : 0367B0CD4016716A;
    359 : 46E70C83670A0000168169;
    360 : -000010000000000;
    361 : -000010000000000;
    362 : 036A01012916B16C;
    363 : -000010000000000;
    364 : -000010000000000;
    365 : 036FB0CDC016E171;
    366 : 036E01019716F170;
    367 : -000010000000000;
    368 : -000010000000000;
    369 : 0373B0CE40172173;
    370 : -000010000000000;
    371 : -000010000000000;
    372 : 0377B0CDC017517C;
    373 : 44E02C03750A000017617B;
    374 : 03760101F4177178;
    375 : -000010000000000;
    376 : 422B47C3780A000017917A;
    377 : -000010000000000;
    378 : -000010000000000;
    379 : -000010000000000;
    380 : 448983837C0A000017D17E;
    381 : -000010000000000;
    382 : -000010000000000;
    383 : 037F010198180191;
    384 : 03800100F918118C;
    385 : 7DF199C3810A000018218B;
    386 : 7B60063FFFFFFC00183184;
    387 : -000010000000000;
    388 : 7C7F7743840A0000185188;
    389 : 03E7B0CD40186187;
    390 : -000010000000000;
    391 : -000010000000000;
    392 : 03880100F818918A;
    393 : -000010000000000;
    394 : -000010000000000;
    395 : -000010000000000;
    396 : 56EEF5C38C0A000018D18E;
    397 : -000010000000000;
    398 : 570EA7C38E0A000018F190;
    399 : -000010000000000;
    400 : -000010000000000;
    401 : 7FEAFF03910A00001921A3;
    402 : 03F3B0CE401931A2;
    403 : 03F3B0CD4019419B;
    404 : 5211B583940A0000195198;
    405 : 51B0F143950A0000196197;
    406 : -000010000000000;
    407 : -000010000000000;
    408 : 57FC9103980A000019919A;
    409 : -000010000000000;
    410 : -000010000000000;
    411 : 03FBB0CDC019C19F;
    412 : 57E8DA839C0A000019D19E;
    413 : -000010000000000;
    414 : -000010000000000;
    415 : 58350D439F0A00001A01A1;
    416 : -000010000000000;
    417 : -000010000000000;
    418 : -000010000000000;
    419 : 03E3B0CDC01A41B1;
    420 : D1DDB183A40A00001A51AC;
    421 : 03E7B0CD401A61A9;
    422 : CFEFCA03A60A00001A71A8;
    423 : -000010000000000;
    424 : -000010000000000;
    425 : 03A901019D1AA1AB;
    426 : -000010000000000;
    427 : -000010000000000;
    428 : D8039583AC0A00001AD1B0;
    429 : 03AD01019A1AE1AF;
    430 : -000010000000000;
    431 : -000010000000000;
    432 : -000010000000000;
    433 : D1CAFF03B10A00001B21B9;
    434 : 03B201019D1B31B6;
    435 : 03B30101991B41B5;
    436 : -000010000000000;
    437 : -000010000000000;
    438 : 03F7B0CE401B71B8;
    439 : -000010000000000;
    440 : -000010000000000;
    441 : 03B901019A1BA1BB;
    442 : -000010000000000;
    443 : -000010000000000;
    444 : 80048203BC0A00001BD1D0;
    445 : 7FFADE83BD0A04001BE1CF;
    446 : 473179C3BE0A00001BF1CE;
    447 : 401FF9C3BF0A00001C01C1;
    448 : -000010000000000;
    449 : 03E3B0CDC01C21C9;
    450 : 03E3B0CD401C31C6;
    451 : 03C30105151C41C5;
    452 : -000010000000000;
    453 : -000010000000000;
    454 : 03C60104C71C71C8;
    455 : -000010000000000;
    456 : -000010000000000;
    457 : 03EBB0CE401CA1CD;
    458 : 406E14C3CA0A00001CB1CC;
    459 : -000010000000000;
    460 : -000010000000000;
    461 : -000010000000000;
    462 : -000010000000000;
    463 : -000010000000000;
    464 : -000010000000000;
END;
