WIDTH=64;
DEPTH=512;
ADDRESS_RADIX=UNS;
DATA_RADIX=HEX;
CONTENT BEGIN
    0 : 12000100C0001002;
    1 : -000010000000000;
    2 : 1263B0CE40003128;
    3 : 1263B0CD4000407D;
    4 : 12040101F500504E;
    5 : 120501017C00602B;
    6 : 12060100C4007012;
    7 : 12070100C1008011;
    8 : 127F6EFC0000900C;
    9 : 12090A001700A00B;
    10 : -000010000000000;
    11 : -000010000000000;
    12 : 49DF50D20C0A040000D010;
    13 : 10D3FFDCA000000E00F;
    14 : -000010000000000;
    15 : -000010000000000;
    16 : -000010000000000;
    17 : -000010000000000;
    18 : 4703CE92120A0000013020;
    19 : 12130100F901401B;
    20 : 12140100C9015018;
    21 : 12150100C5016017;
    22 : -000010000000000;
    23 : -000010000000000;
    24 : 12180100F001901A;
    25 : -000010000000000;
    26 : -000010000000000;
    27 : 121B01013801C01F;
    28 : 121C01012901D01E;
    29 : -000010000000000;
    30 : -000010000000000;
    31 : -000010000000000;
    32 : 12200100F9021026;
    33 : 7DDC633FFFFFFC00022025;
    34 : 7B054292220A0000023024;
    35 : -000010000000000;
    36 : -000010000000000;
    37 : -000010000000000;
    38 : 122601012A02702A;
    39 : 1227010129028029;
    40 : -000010000000000;
    41 : -000010000000000;
    42 : -000010000000000;
    43 : D1DDB1922B0A000002C047;
    44 : 122C0101E502D03A;
    45 : 122D0101E402E035;
    46 : 11CC90D22E0A000002F032;
    47 : 12FF4AF700030031;
    48 : -000010000000000;
    49 : -000010000000000;
    50 : 123201019D033034;
    51 : -000010000000000;
    52 : -000010000000000;
    53 : 3003EB3BFCA0020036037;
    54 : -000010000000000;
    55 : 4C340052370A0000038039;
    56 : -000010000000000;
    57 : -000010000000000;
    58 : 123A0101F003B042;
    59 : A801E3B0A000003C03F;
    60 : 123C0101E903D03E;
    61 : -000010000000000;
    62 : -000010000000000;
    63 : 123F0101E9040041;
    64 : -000010000000000;
    65 : -000010000000000;
    66 : AE741092420A0000043046;
    67 : FF7E812430A0000044045;
    68 : -000010000000000;
    69 : -000010000000000;
    70 : -000010000000000;
    71 : 124701019904804D;
    72 : D82C3312480A000004904C;
    73 : 124901019704A04B;
    74 : -000010000000000;
    75 : -000010000000000;
    76 : -000010000000000;
    77 : -000010000000000;
    78 : 124E0A000004F05A;
    79 : 124F01031B050051;
    80 : -000010000000000;
    81 : 125101038B052053;
    82 : -000010000000000;
    83 : 12530103DA054055;
    84 : -000010000000000;
    85 : 125501042D056057;
    86 : -000010000000000;
    87 : 12570104B0058059;
    88 : -000010000000000;
    89 : -000010000000000;
    90 : 125A0103FB05B06C;
    91 : 125B0103C005C063;
    92 : 125C0102C205D05E;
    93 : -000010000000000;
    94 : 95AFF9A000005F062;
    95 : 125F0A7B4E060061;
    96 : -000010000000000;
    97 : -000010000000000;
    98 : -000010000000000;
    99 : 80232392630A000006406B;
    100 : 104BA6E0A0000065068;
    101 : 12650103F8066067;
    102 : -000010000000000;
    103 : -000010000000000;
    104 : 888B252680A000006906A;
    105 : -000010000000000;
    106 : -000010000000000;
    107 : -000010000000000;
    108 : 126C01052A06D076;
    109 : 4732B4126D0A000006E075;
    110 : 3FFA8FB26E0A000006F072;
    111 : F2EF4A0000070071;
    112 : -000010000000000;
    113 : -000010000000000;
    114 : 406D5492720A0000073074;
    115 : -000010000000000;
    116 : -000010000000000;
    117 : -000010000000000;
    118 : 1276010770077078;
    119 : -000010000000000;
    120 : 40737A8A000007907C;
    121 : 127901077307A07B;
    122 : -000010000000000;
    123 : -000010000000000;
    124 : -000010000000000;
    125 : 127D0101E507E0DF;
    126 : 127FB0CDC007F0B0;
    127 : 127F01017C080099;
    128 : 12800100C508108C;
    129 : 12810100C1082087;
    130 : 57E0B552820A0000083086;
    131 : 12C30F2000084085;
    132 : -000010000000000;
    133 : -000010000000000;
    134 : -000010000000000;
    135 : 12870100C4088089;
    136 : -000010000000000;
    137 : 594DE6D2890A000008A08B;
    138 : -000010000000000;
    139 : -000010000000000;
    140 : 128C0100F008D092;
    141 : 128D0100C908E091;
    142 : 128E0100C808F090;
    143 : -000010000000000;
    144 : -000010000000000;
    145 : -000010000000000;
    146 : 59E909E920A0000093096;
    147 : 12930A0ED6094095;
    148 : -000010000000000;
    149 : -000010000000000;
    150 : 472F58D2960A0000097098;
    151 : -000010000000000;
    152 : -000010000000000;
    153 : 12990101A109A0A7;
    154 : 129A01019009B0A0;
    155 : 52679329B0A000009C09F;
    156 : 129C0A000509D09E;
    157 : -000010000000000;
    158 : -000010000000000;
    159 : -000010000000000;
    160 : 12A00101910A10A4;
    161 : 3251832F9AA00000A20A3;
    162 : -000010000000000;
    163 : -000010000000000;
    164 : D9B37612A40A00000A50A6;
    165 : -000010000000000;
    166 : -000010000000000;
    167 : 4704EE52A70A00000A80AF;
    168 : 44672EC0A00000A90AC;
    169 : 12A90101C60AA0AB;
    170 : -000010000000000;
    171 : -000010000000000;
    172 : 12AC0101C20AD0AE;
    173 : -000010000000000;
    174 : -000010000000000;
    175 : -000010000000000;
    176 : 12B00A00FE0B10C4;
    177 : 12B101017E0B20BD;
    178 : 12B20101340B30B8;
    179 : 12B30100EF0B40B5;
    180 : -000010000000000;
    181 : 12B50100F30B60B7;
    182 : -000010000000000;
    183 : -000010000000000;
    184 : 12B801013B0B90BC;
    185 : 12B90A00170BA0BB;
    186 : -000010000000000;
    187 : -000010000000000;
    188 : -000010000000000;
    189 : 12BD0101CD0BE0C3;
    190 : 12BE0101CB0BF0C2;
    191 : 12BF0A000C0C00C1;
    192 : -000010000000000;
    193 : -000010000000000;
    194 : -000010000000000;
    195 : -000010000000000;
    196 : 9011CDFFFFFFF8000C50D4;
    197 : 84003AC50A00000C60CD;
    198 : 802FF3C60A00000C70CA;
    199 : 12C70100F10C80C9;
    200 : -000010000000000;
    201 : -000010000000000;
    202 : 81095FCA0A00000CB0CC;
    203 : -000010000000000;
    204 : -000010000000000;
    205 : 23EBA5F2CD0A00000CE0D1;
    206 : B3781ECE0A00000CF0D0;
    207 : -000010000000000;
    208 : -000010000000000;
    209 : 12D10101970D20D3;
    210 : -000010000000000;
    211 : -000010000000000;
    212 : BFAB3A12D40A00000D50DA;
    213 : 97EAA112D50A00000D60D9;
    214 : 9716DC12D60A00000D70D8;
    215 : -000010000000000;
    216 : -000010000000000;
    217 : -000010000000000;
    218 : D0744012DA0A00000DB0DE;
    219 : CFAD7812DB0A00000DC0DD;
    220 : -000010000000000;
    221 : -000010000000000;
    222 : -000010000000000;
    223 : 12DF0103D10E0105;
    224 : 12E00A00000E10E8;
    225 : 12E3B0CDC00E20E7;
    226 : 12E20103260E30E6;
    227 : 12E30102200E40E5;
    228 : -000010000000000;
    229 : -000010000000000;
    230 : -000010000000000;
    231 : -000010000000000;
    232 : 76833BEE80A00000E90F8;
    233 : 1007B3BE90A00000EA0F1;
    234 : 12EA0102C20EB0EE;
    235 : A001EEB0A00000EC0ED;
    236 : -000010000000000;
    237 : -000010000000000;
    238 : 12EFB0CDC00EF0F0;
    239 : -000010000000000;
    240 : -000010000000000;
    241 : 12F3B0CDC00F20F5;
    242 : 12F20103CB0F30F4;
    243 : -000010000000000;
    244 : -000010000000000;
    245 : 15AC2BFF50A00000F60F7;
    246 : -000010000000000;
    247 : -000010000000000;
    248 : F128017FFFFFF800F90FE;
    249 : EDFCB37FFFFFF800FA0FB;
    250 : -000010000000000;
    251 : 12FBB0CDC00FC0FD;
    252 : -000010000000000;
    253 : -000010000000000;
    254 : 12FFB0CDC00FF102;
    255 : 1005FC3AFF0A0000100101;
    256 : -000010000000000;
    257 : -000010000000000;
    258 : 13020101F5103104;
    259 : -000010000000000;
    260 : -000010000000000;
    261 : 13050A000010610F;
    262 : 1367B0CDC010710E;
    263 : 130701066910810D;
    264 : 130801050D10910C;
    265 : 130901046A10A10B;
    266 : -000010000000000;
    267 : -000010000000000;
    268 : -000010000000000;
    269 : -000010000000000;
    270 : -000010000000000;
    271 : F31FAF0000110119;
    272 : 13100103FB111118;
    273 : 1373B0CDC0112115;
    274 : 13120103F8113114;
    275 : -000010000000000;
    276 : -000010000000000;
    277 : 13150A07E6116117;
    278 : -000010000000000;
    279 : -000010000000000;
    280 : -000010000000000;
    281 : 137BB0CDC011A121;
    282 : 131A0103F911B11E;
    283 : 131B0103E811C11D;
    284 : -000010000000000;
    285 : -000010000000000;
    286 : 131E01052A11F120;
    287 : -000010000000000;
    288 : -000010000000000;
    289 : 133B1C33210A0000122125;
    290 : D43877220A0000123124;
    291 : -000010000000000;
    292 : -000010000000000;
    293 : 134813B3250A0000126127;
    294 : -000010000000000;
    295 : -000010000000000;
    296 : 136BB0CEC0129148;
    297 : 4013298A000012A13F;
    298 : 132A0A001312B12C;
    299 : -000010000000000;
    300 : 132C0A002C12D12E;
    301 : -000010000000000;
    302 : 132E01039912F13A;
    303 : 132F0100DD130135;
    304 : 13370A2084131134;
    305 : 13338A2084132133;
    306 : -000010000000000;
    307 : -000010000000000;
    308 : -000010000000000;
    309 : 2813350A0000136139;
    310 : 1336010349137138;
    311 : -000010000000000;
    312 : -000010000000000;
    313 : -000010000000000;
    314 : 133A0103F213B13E;
    315 : BBBB0A000013C13D;
    316 : -000010000000000;
    317 : -000010000000000;
    318 : -000010000000000;
    319 : 133F0101F3140141;
    320 : -000010000000000;
    321 : 13410102DB142147;
    322 : 8980017420A0000143144;
    323 : -000010000000000;
    324 : D8D8013440A0000145146;
    325 : -000010000000000;
    326 : -000010000000000;
    327 : -000010000000000;
    328 : 1BF184D3480A0000149152;
    329 : 136BB0CFC014A151;
    330 : 1BCA0A000014B150;
    331 : 134B01039914C14D;
    332 : -000010000000000;
    333 : 174D0A013814E14F;
    334 : -000010000000000;
    335 : -000010000000000;
    336 : -000010000000000;
    337 : -000010000000000;
    338 : 1E4283D3520A0000153154;
    339 : -000010000000000;
    340 : -000010000000000;
END;
