WIDTH=64;
DEPTH=512;
ADDRESS_RADIX=UNS;
DATA_RADIX=HEX;
CONTENT BEGIN
    0 : 0963B0CE40001128;
    1 : 09010100C0002003;
    2 : -000010000000000;
    3 : 0963B0CD40004093;
    4 : 51B92989040A000000506A;
    5 : 09050B80BC00602D;
    6 : 09061A5AA8007020;
    7 : 09070AFFEA008017;
    8 : 09080A0002009010;
    9 : 09090A000100A00D;
    10 : 090A0100C300B00C;
    11 : -000010000000000;
    12 : -000010000000000;
    13 : 090D01016900E00F;
    14 : -000010000000000;
    15 : -000010000000000;
    16 : 09100A4127011014;
    17 : 09110101C8012013;
    18 : -000010000000000;
    19 : -000010000000000;
    20 : 09140100F3015016;
    21 : -000010000000000;
    22 : -000010000000000;
    23 : 09170101F801801F;
    24 : 09181EEA9401901C;
    25 : 09190F1D6401A01B;
    26 : -000010000000000;
    27 : -000010000000000;
    28 : 091C01019D01D01E;
    29 : -000010000000000;
    30 : -000010000000000;
    31 : -000010000000000;
    32 : 09209EF529021028;
    33 : 092101019E022027;
    34 : 092201019C023024;
    35 : -000010000000000;
    36 : 09241EF9A2025026;
    37 : -000010000000000;
    38 : -000010000000000;
    39 : -000010000000000;
    40 : 092801034C02902C;
    41 : 092901034702A02B;
    42 : -000010000000000;
    43 : -000010000000000;
    44 : -000010000000000;
    45 : 7FF1192D0A000002E04D;
    46 : 092E0101E102F03E;
    47 : 09FF9A5E00030037;
    48 : 09300100F0031034;
    49 : 09310100CA032033;
    50 : -000010000000000;
    51 : -000010000000000;
    52 : 09340100F2035036;
    53 : -000010000000000;
    54 : -000010000000000;
    55 : 0D376BB00003803B;
    56 : 0BBF5F880003903A;
    57 : -000010000000000;
    58 : -000010000000000;
    59 : 3FBB4A200003C03D;
    60 : -000010000000000;
    61 : -000010000000000;
    62 : 093E9ABC8003F046;
    63 : 093FFE6DFC040043;
    64 : 094001036C041042;
    65 : -000010000000000;
    66 : -000010000000000;
    67 : 094301038B044045;
    68 : -000010000000000;
    69 : -000010000000000;
    70 : 09460102F904704A;
    71 : 09470102C2048049;
    72 : -000010000000000;
    73 : -000010000000000;
    74 : E9EB5F000004B04C;
    75 : -000010000000000;
    76 : -000010000000000;
    77 : 094D0101F504E05D;
    78 : 094E0100C904F056;
    79 : 34FA8B5FFFFFFE00050053;
    80 : 09500100C1051052;
    81 : -000010000000000;
    82 : -000010000000000;
    83 : 09530100C1054055;
    84 : -000010000000000;
    85 : -000010000000000;
    86 : FF1D8DD60A000005705A;
    87 : 09570101E7058059;
    88 : -000010000000000;
    89 : -000010000000000;
    90 : 1011F3F95A0A000005B05C;
    91 : -000010000000000;
    92 : -000010000000000;
    93 : 803FCA95D0A000005E065;
    94 : 764EC2FFFFFFFC005F062;
    95 : 095F0103F1060061;
    96 : -000010000000000;
    97 : -000010000000000;
    98 : 768C29D620A0000063064;
    99 : -000010000000000;
    100 : -000010000000000;
    101 : 096501052A066069;
    102 : 401ACBC9660A0000067068;
    103 : -000010000000000;
    104 : -000010000000000;
    105 : -000010000000000;
    106 : 096A0101F106B08C;
    107 : 7B6D207FFFFFFC0006C077;
    108 : 56ED38C96C0A000006D06E;
    109 : -000010000000000;
    110 : 096E01019806F072;
    111 : 570EA7C96F0A0000070071;
    112 : -000010000000000;
    113 : -000010000000000;
    114 : 0972010199073076;
    115 : 57FC9109730A0000074075;
    116 : -000010000000000;
    117 : -000010000000000;
    118 : -000010000000000;
    119 : D1C19C89770A0000078085;
    120 : 097801019807907E;
    121 : 09790100F907A07D;
    122 : 097A0100F807B07C;
    123 : -000010000000000;
    124 : -000010000000000;
    125 : -000010000000000;
    126 : CFEFCA097E0A000007F082;
    127 : 097F01019D080081;
    128 : -000010000000000;
    129 : -000010000000000;
    130 : D015C8FFFFFFF800083084;
    131 : -000010000000000;
    132 : -000010000000000;
    133 : 0985010198086087;
    134 : -000010000000000;
    135 : D7CD6C89870A000008808B;
    136 : 098801019A08908A;
    137 : -000010000000000;
    138 : -000010000000000;
    139 : -000010000000000;
    140 : 80008C898C0A000008D092;
    141 : 098D0103EE08E091;
    142 : 7FEDB8498E0A000008F090;
    143 : -000010000000000;
    144 : -000010000000000;
    145 : -000010000000000;
    146 : -000010000000000;
    147 : 09F3B0CDC00940E5;
    148 : 4FFFC149940A00000950CA;
    149 : 80050D950A00000960B3;
    150 : 099601034A0970A6;
    151 : 09970100F009809F;
    152 : 09980100C509909C;
    153 : 09990100C409A09B;
    154 : -000010000000000;
    155 : -000010000000000;
    156 : 099C0A3DA509D09E;
    157 : -000010000000000;
    158 : -000010000000000;
    159 : 912ED9F0A00000A00A3;
    160 : 09A00A00020A10A2;
    161 : -000010000000000;
    162 : -000010000000000;
    163 : A000DAB0A00000A40A5;
    164 : -000010000000000;
    165 : -000010000000000;
    166 : 09A60A00000A70AC;
    167 : 09A70106690A80AB;
    168 : 09A801050D0A90AA;
    169 : -000010000000000;
    170 : -000010000000000;
    171 : -000010000000000;
    172 : E9AC4F00000AD0B0;
    173 : 09AD0103FB0AE0AF;
    174 : -000010000000000;
    175 : -000010000000000;
    176 : 09B00103FA0B10B2;
    177 : -000010000000000;
    178 : -000010000000000;
    179 : 09B30101E90B40C1;
    180 : 09B40100C50B50BA;
    181 : 3D9A6009B50A02000B60B9;
    182 : E2050DB60A00000B70B8;
    183 : -000010000000000;
    184 : -000010000000000;
    185 : -000010000000000;
    186 : 45EDB709BA0A00000BB0BE;
    187 : 1009CF19BB0A00000BC0BD;
    188 : -000010000000000;
    189 : -000010000000000;
    190 : 09BE0101260BF0C0;
    191 : -000010000000000;
    192 : -000010000000000;
    193 : 09C101052A0C20C9;
    194 : 09C20103C00C30C6;
    195 : 09C30101F50C40C5;
    196 : -000010000000000;
    197 : -000010000000000;
    198 : 09C60103C90C70C8;
    199 : -000010000000000;
    200 : -000010000000000;
    201 : -000010000000000;
    202 : 09CA0101F10CB0DC;
    203 : 09CB0101980CC0CD;
    204 : -000010000000000;
    205 : 09CD01019D0CE0D5;
    206 : 09CE0101990CF0D2;
    207 : E1359589CF0A00000D00D1;
    208 : -000010000000000;
    209 : -000010000000000;
    210 : C0F357FFFFFFF8000D30D4;
    211 : -000010000000000;
    212 : -000010000000000;
    213 : ADC48EFFFFFFF8000D60D9;
    214 : 09D60101F00D70D8;
    215 : -000010000000000;
    216 : -000010000000000;
    217 : 09D90101F00DA0DB;
    218 : -000010000000000;
    219 : -000010000000000;
    220 : 09DC0103ED0DD0E4;
    221 : 800D44FFFFFFF8000DE0E3;
    222 : 09DE0103EC0DF0E0;
    223 : -000010000000000;
    224 : 7B431F09E00A00000E10E2;
    225 : -000010000000000;
    226 : -000010000000000;
    227 : -000010000000000;
    228 : -000010000000000;
    229 : 09E50101E60E6109;
    230 : 09E601017C0E70FA;
    231 : 09E70A0B5B0E80F3;
    232 : 09E80101340E90EE;
    233 : 09E90A00380EA0EB;
    234 : -000010000000000;
    235 : 09EB0100F30EC0ED;
    236 : -000010000000000;
    237 : -000010000000000;
    238 : 09EE0A00110EF0F2;
    239 : 09EF0A00060F00F1;
    240 : -000010000000000;
    241 : -000010000000000;
    242 : -000010000000000;
    243 : 472B0AC9F30A00000F40F9;
    244 : 09F40101340F50F8;
    245 : 348087E9F50A00000F60F7;
    246 : -000010000000000;
    247 : -000010000000000;
    248 : -000010000000000;
    249 : -000010000000000;
    250 : D0B1E2FFFFFFF8000FB108;
    251 : 09FB0101E40FC103;
    252 : 10B07F19FC0A00000FD100;
    253 : 09FD0101E10FE0FF;
    254 : -000010000000000;
    255 : -000010000000000;
    256 : 090001019D101102;
    257 : -000010000000000;
    258 : -000010000000000;
    259 : 230047195F0A0000104105;
    260 : -000010000000000;
    261 : 46E7A789050A0000106107;
    262 : -000010000000000;
    263 : -000010000000000;
    264 : -000010000000000;
    265 : 09090A000010A10B;
    266 : -000010000000000;
    267 : 090B0103D110C11B;
    268 : 93BADEA000010D114;
    269 : 090D0102C210E111;
    270 : 090E0101EA10F110;
    271 : -000010000000000;
    272 : -000010000000000;
    273 : 091101034B112113;
    274 : -000010000000000;
    275 : -000010000000000;
    276 : F1B0019140A0000115118;
    277 : 7E43A99150A0000116117;
    278 : -000010000000000;
    279 : -000010000000000;
    280 : 500393C9180A000011911A;
    281 : -000010000000000;
    282 : -000010000000000;
    283 : E9FBCB800011C121;
    284 : 091C0103F911D11E;
    285 : -000010000000000;
    286 : 091E0103FB11F120;
    287 : -000010000000000;
    288 : -000010000000000;
    289 : 133B1C29210A0000122125;
    290 : D116EDA20A0000123124;
    291 : -000010000000000;
    292 : -000010000000000;
    293 : 09250103EC126127;
    294 : -000010000000000;
    295 : -000010000000000;
    296 : 096BB0CEC0129148;
    297 : 4009298A000012A141;
    298 : 092A0100DD12B132;
    299 : 092F0A208412C131;
    300 : 092C0A201012D12E;
    301 : -000010000000000;
    302 : 092F8A208412F130;
    303 : -000010000000000;
    304 : -000010000000000;
    305 : -000010000000000;
    306 : 09FF8A800013313A;
    307 : 093301015F134139;
    308 : 09350F8164135138;
    309 : 093501013C136137;
    310 : -000010000000000;
    311 : -000010000000000;
    312 : -000010000000000;
    313 : -000010000000000;
    314 : 093A01032113B13E;
    315 : 28093B0A000013C13D;
    316 : -000010000000000;
    317 : -000010000000000;
    318 : 7BFFBA1C0013F140;
    319 : -000010000000000;
    320 : -000010000000000;
    321 : D390AC9410A0080142147;
    322 : 09420101EF143144;
    323 : -000010000000000;
    324 : D048CAFFFFFFF80145146;
    325 : -000010000000000;
    326 : -000010000000000;
    327 : -000010000000000;
    328 : 1BF184C9480A0000149156;
    329 : 096BB0CFC014A155;
    330 : 0BCA0A000014B154;
    331 : 096BB0CF4014C14D;
    332 : -000010000000000;
    333 : 094D01039914E14F;
    334 : -000010000000000;
    335 : 094F0103F2150153;
    336 : 0D500A0000151152;
    337 : -000010000000000;
    338 : -000010000000000;
    339 : -000010000000000;
    340 : -000010000000000;
    341 : -000010000000000;
    342 : 09560102EF157158;
    343 : -000010000000000;
    344 : 20549EF9580A000015915A;
    345 : -000010000000000;
    346 : -000010000000000;
END;
