WIDTH=64;
DEPTH=512;
ADDRESS_RADIX=UNS;
DATA_RADIX=HEX;
CONTENT BEGIN
    0 : 0E000100C0001002;
    1 : -000010000000000;
    2 : 0E020101F30030B0;
    3 : 0E63B0CE40004097;
    4 : 0E0401017C00503C;
    5 : 0E05010134006031;
    6 : 0E060A0FEE007014;
    7 : 0E070A000000800F;
    8 : 0E080100C300900C;
    9 : 0E6BB0CD4000A00B;
    10 : -000010000000000;
    11 : -000010000000000;
    12 : 0E0C0100CC00D00E;
    13 : -000010000000000;
    14 : -000010000000000;
    15 : 0E0F0A003F010011;
    16 : -000010000000000;
    17 : 0E110A0040012013;
    18 : -000010000000000;
    19 : -000010000000000;
    20 : 0E140100C5015024;
    21 : 0E77B0CD4001601D;
    22 : 0E160100C101701A;
    23 : 49DF50CE170A0400018019;
    24 : -000010000000000;
    25 : -000010000000000;
    26 : 34FA8B5FFFFFFE0001B01C;
    27 : -000010000000000;
    28 : -000010000000000;
    29 : 0E7FB0CDC001E021;
    30 : 4058A12E1E0A000001F020;
    31 : -000010000000000;
    32 : -000010000000000;
    33 : 0E210100C1022023;
    34 : -000010000000000;
    35 : -000010000000000;
    36 : 0E240100F002502A;
    37 : 0E250100C9026029;
    38 : 0E67B0CDC0027028;
    39 : -000010000000000;
    40 : -000010000000000;
    41 : -000010000000000;
    42 : 5B1451E2A0A004002B02E;
    43 : 0E2B0100F902C02D;
    44 : -000010000000000;
    45 : -000010000000000;
    46 : 0E2E01012902F030;
    47 : -000010000000000;
    48 : -000010000000000;
    49 : 0E3101013803203B;
    50 : 0E32010137033034;
    51 : -000010000000000;
    52 : 0E77B0CDC0035038;
    53 : 0E350A006B036037;
    54 : -000010000000000;
    55 : -000010000000000;
    56 : 1CFF852E380A000003903A;
    57 : -000010000000000;
    58 : -000010000000000;
    59 : -000010000000000;
    60 : 0E7FB0CDC003D070;
    61 : 4D9AC1E3D0A000003E059;
    62 : 0E7FB0CD4003F04C;
    63 : 9800E3F0A0000040047;
    64 : 0E400A0001041044;
    65 : 0E410101C1042043;
    66 : -000010000000000;
    67 : -000010000000000;
    68 : 0E440101E9045046;
    69 : -000010000000000;
    70 : -000010000000000;
    71 : 0E470101E8048049;
    72 : -000010000000000;
    73 : 0E490101E904A04B;
    74 : -000010000000000;
    75 : -000010000000000;
    76 : 9800E4C0A000004D052;
    77 : 0E4D01017E04E04F;
    78 : -000010000000000;
    79 : 0E4F0A0000050051;
    80 : -000010000000000;
    81 : -000010000000000;
    82 : A000E5A0A0000053056;
    83 : 0E530101E7054055;
    84 : -000010000000000;
    85 : -000010000000000;
    86 : 0E560101E7057058;
    87 : -000010000000000;
    88 : -000010000000000;
    89 : 500887CE590A000005A063;
    90 : 0E5A0101E905B062;
    91 : 1011F3FE5B0A000005C05F;
    92 : 86A2F6E5C0A000005D05E;
    93 : -000010000000000;
    94 : -000010000000000;
    95 : 0E5F010198060061;
    96 : -000010000000000;
    97 : -000010000000000;
    98 : -000010000000000;
    99 : 0E6301019D064069;
    100 : 0E64010198065066;
    101 : -000010000000000;
    102 : 0E66010199067068;
    103 : -000010000000000;
    104 : -000010000000000;
    105 : 0E6BB0CD4006A06D;
    106 : 0E6A0101F006B06C;
    107 : -000010000000000;
    108 : -000010000000000;
    109 : 0E6D0101F006E06F;
    110 : -000010000000000;
    111 : -000010000000000;
    112 : 4E602BE700A0000071086;
    113 : 0E710101E1072079;
    114 : 10342FFE0A0000073078;
    115 : 0E730A0001074075;
    116 : -000010000000000;
    117 : 0E750B9CBF076077;
    118 : -000010000000000;
    119 : -000010000000000;
    120 : -000010000000000;
    121 : 9800E790A000007A081;
    122 : 0E7A0101F207B07E;
    123 : 0E7B0101E907C07D;
    124 : -000010000000000;
    125 : -000010000000000;
    126 : 0E7E4E66F707F080;
    127 : -000010000000000;
    128 : -000010000000000;
    129 : 0E810101EA082085;
    130 : 0E820101E7083084;
    131 : -000010000000000;
    132 : -000010000000000;
    133 : -000010000000000;
    134 : 0E8601019008708C;
    135 : 0E8701017D08808B;
    136 : 42FA878E880A040008908A;
    137 : -000010000000000;
    138 : -000010000000000;
    139 : -000010000000000;
    140 : 0E8C01019D08D092;
    141 : D604BC0E8D0A000008E091;
    142 : 10B07F1E8E0A000008F090;
    143 : -000010000000000;
    144 : -000010000000000;
    145 : -000010000000000;
    146 : 0E920101C2093094;
    147 : -000010000000000;
    148 : 0E940101E4095096;
    149 : -000010000000000;
    150 : -000010000000000;
    151 : 0E970A20840980A7;
    152 : 0EFBB0CEC00990A6;
    153 : 0E990A001309A09B;
    154 : -000010000000000;
    155 : 0E9B0A008B09C09D;
    156 : -000010000000000;
    157 : 0E9D0100DD09E0A1;
    158 : 0E9F8A208409F0A0;
    159 : -000010000000000;
    160 : -000010000000000;
    161 : 0EA11A01040A20A3;
    162 : -000010000000000;
    163 : 0EA31A09130A40A5;
    164 : -000010000000000;
    165 : -000010000000000;
    166 : -000010000000000;
    167 : 400EA74A00000A80AF;
    168 : 0EEBB0CEC00A90AE;
    169 : 0EA901010C0AA0AD;
    170 : 231EAE8A00000AB0AC;
    171 : -000010000000000;
    172 : -000010000000000;
    173 : -000010000000000;
    174 : -000010000000000;
    175 : -000010000000000;
    176 : D0C8C0EB00A00000B1114;
    177 : 0EF3B0CE400B2107;
    178 : 0EF3B0CDC00B30E4;
    179 : 0EF3B0CD400B40CD;
    180 : 0EB40A00000B50BE;
    181 : 0EB50103100B60B7;
    182 : -000010000000000;
    183 : 0EB70104000B80BB;
    184 : 0EB801038B0B90BA;
    185 : -000010000000000;
    186 : -000010000000000;
    187 : 0EBB0104B00BC0BD;
    188 : -000010000000000;
    189 : -000010000000000;
    190 : 0EBE0103FB0BF0C6;
    191 : FF415EBF0A00000C00C3;
    192 : 0EC10A749B0C10C2;
    193 : -000010000000000;
    194 : -000010000000000;
    195 : 0EC30103BE0C40C5;
    196 : -000010000000000;
    197 : -000010000000000;
    198 : 0EC60104F10C70CA;
    199 : 0EC70104D00C80C9;
    200 : -000010000000000;
    201 : -000010000000000;
    202 : 0ECA0107700CB0CC;
    203 : -000010000000000;
    204 : -000010000000000;
    205 : 0ECD0A00000CE0D5;
    206 : 0ECE0103260CF0D0;
    207 : -000010000000000;
    208 : 0ED00104600D10D2;
    209 : -000010000000000;
    210 : 0ED20104ED0D30D4;
    211 : -000010000000000;
    212 : -000010000000000;
    213 : FF4FEFD50A00000D60DD;
    214 : 0ED70BAA870D70DA;
    215 : 0ED70A02710D80D9;
    216 : -000010000000000;
    217 : -000010000000000;
    218 : 0EDA01034A0DB0DC;
    219 : -000010000000000;
    220 : -000010000000000;
    221 : 14A000EDD0A00000DE0E1;
    222 : 0EDE0104580DF0E0;
    223 : -000010000000000;
    224 : -000010000000000;
    225 : 14AFFFFFFFFFFF00E20E3;
    226 : -000010000000000;
    227 : -000010000000000;
    228 : 1006DAEE40A00000E50FA;
    229 : 0EE501034B0E60ED;
    230 : 0EE60102C20E70E8;
    231 : -000010000000000;
    232 : 11BEF88A00000E90EC;
    233 : 0EE90A00030EA0EB;
    234 : -000010000000000;
    235 : -000010000000000;
    236 : -000010000000000;
    237 : EEEDCB80000EE0F3;
    238 : 0EEE0A00000EF0F0;
    239 : -000010000000000;
    240 : 0EF00103F90F10F2;
    241 : -000010000000000;
    242 : -000010000000000;
    243 : 404FFB4A00000F40F7;
    244 : 3EFEFCCA00000F50F6;
    245 : -000010000000000;
    246 : -000010000000000;
    247 : 0EF70103F90F80F9;
    248 : -000010000000000;
    249 : -000010000000000;
    250 : 0EFA0105020FB106;
    251 : 838C54EFB0A00000FC101;
    252 : 15AC2BFFC0A00000FD0FE;
    253 : -000010000000000;
    254 : 0EFE0101F90FF100;
    255 : -000010000000000;
    256 : -000010000000000;
    257 : 872452F010A0000102103;
    258 : -000010000000000;
    259 : B9F077F030A0000104105;
    260 : -000010000000000;
    261 : -000010000000000;
    262 : -000010000000000;
    263 : 0F67B0CEC010810F;
    264 : 0FBA0A1C0010910E;
    265 : 0F8FBB86B810A10B;
    266 : -000010000000000;
    267 : 0F0B01032110C10D;
    268 : -000010000000000;
    269 : -000010000000000;
    270 : -000010000000000;
    271 : 0F8F0A0000110113;
    272 : 0F908A0000111112;
    273 : -000010000000000;
    274 : -000010000000000;
    275 : -000010000000000;
    276 : 8004F50F140A0000115134;
    277 : 0F1501052A116133;
    278 : 0F160103EC11712A;
    279 : D11FF7F170A000011811D;
    280 : 0F180102B411911C;
    281 : 0F7BB0CD4011A11B;
    282 : -000010000000000;
    283 : -000010000000000;
    284 : -000010000000000;
    285 : F0F001F1D0A000011E123;
    286 : 0F1E0101F711F120;
    287 : -000010000000000;
    288 : 0F200103E6121122;
    289 : -000010000000000;
    290 : -000010000000000;
    291 : 0F63B0CE40124127;
    292 : 0F67B0CD40125126;
    293 : -000010000000000;
    294 : -000010000000000;
    295 : 0F270102EF128129;
    296 : -000010000000000;
    297 : -000010000000000;
    298 : 7FF57C3FFFFFF80012B132;
    299 : 0F6BB0CE4012C131;
    300 : 4731CACF2C0A000012D130;
    301 : 400EDD8F2D0A000012E12F;
    302 : -000010000000000;
    303 : -000010000000000;
    304 : -000010000000000;
    305 : -000010000000000;
    306 : -000010000000000;
    307 : -000010000000000;
    308 : -000010000000000;
END;
