WIDTH=64;
DEPTH=512;
ADDRESS_RADIX=UNS;
DATA_RADIX=HEX;
CONTENT BEGIN
    0 : 14000100C0001002;
    1 : -000010000000000;
    2 : 4FFF933FFFFFFC0000311E;
    3 : 800016030A0000004097;
    4 : 1467B0CE40005076;
    5 : 1467B0CD4000603F;
    6 : 14070A7B4E007020;
    7 : 14071B1EFA008015;
    8 : 14080100C400900E;
    9 : 14090100C100A00D;
    10 : 140A0A540500B00C;
    11 : -000010000000000;
    12 : -000010000000000;
    13 : -000010000000000;
    14 : 140E01034A00F012;
    15 : 140F010333010011;
    16 : -000010000000000;
    17 : -000010000000000;
    18 : 14120103FC013014;
    19 : -000010000000000;
    20 : -000010000000000;
    21 : 14159EF52901601B;
    22 : 141601019E01701A;
    23 : 141701019C018019;
    24 : -000010000000000;
    25 : -000010000000000;
    26 : -000010000000000;
    27 : 141B9F13E401C01D;
    28 : -000010000000000;
    29 : 141D01034C01E01F;
    30 : -000010000000000;
    31 : -000010000000000;
    32 : 14200101E1021030;
    33 : 14210100F0022029;
    34 : 173F5F8800023026;
    35 : 14230100CA024025;
    36 : -000010000000000;
    37 : -000010000000000;
    38 : 14E60BC800027028;
    39 : -000010000000000;
    40 : -000010000000000;
    41 : 14290100F902A02D;
    42 : 7E5C2E8A000002B02C;
    43 : -000010000000000;
    44 : -000010000000000;
    45 : 142D01018302E02F;
    46 : -000010000000000;
    47 : -000010000000000;
    48 : 14365A2028031038;
    49 : 1435EEEDF4032035;
    50 : 1432010363033034;
    51 : -000010000000000;
    52 : -000010000000000;
    53 : 1435DFD474036037;
    54 : -000010000000000;
    55 : -000010000000000;
    56 : 14380102FA03903C;
    57 : 93CFB8A000003A03B;
    58 : -000010000000000;
    59 : -000010000000000;
    60 : 1051F7F8A000003D03E;
    61 : -000010000000000;
    62 : -000010000000000;
    63 : 143F01034A04005B;
    64 : 92BF5500A0000041050;
    65 : 1463B0CDC0042049;
    66 : 14420A0002043046;
    67 : 14430A0000044045;
    68 : -000010000000000;
    69 : -000010000000000;
    70 : 14460AFF7C047048;
    71 : -000010000000000;
    72 : -000010000000000;
    73 : 14490100F004A04D;
    74 : 123FCEE0A000004B04C;
    75 : -000010000000000;
    76 : -000010000000000;
    77 : 144D0A000104E04F;
    78 : -000010000000000;
    79 : -000010000000000;
    80 : 14500100C6051056;
    81 : 1473B0CDC0052055;
    82 : 14520100C4053054;
    83 : -000010000000000;
    84 : -000010000000000;
    85 : -000010000000000;
    86 : 14560101E7057058;
    87 : -000010000000000;
    88 : 147BB0CDC005905A;
    89 : -000010000000000;
    90 : -000010000000000;
    91 : 147BB0CDC005C06B;
    92 : 145C0103FB05D064;
    93 : 145D0103F805E061;
    94 : 145E0A000005F060;
    95 : -000010000000000;
    96 : -000010000000000;
    97 : 14610103FA062063;
    98 : -000010000000000;
    99 : -000010000000000;
    100 : 1464010770065068;
    101 : 14650A0000066067;
    102 : -000010000000000;
    103 : -000010000000000;
    104 : 14680A000106906A;
    105 : -000010000000000;
    106 : -000010000000000;
    107 : 146B0103F806C071;
    108 : 19E7FCA000006D06E;
    109 : -000010000000000;
    110 : 146E0103E706F070;
    111 : -000010000000000;
    112 : -000010000000000;
    113 : 14710A0000072073;
    114 : -000010000000000;
    115 : 14730103FB074075;
    116 : -000010000000000;
    117 : -000010000000000;
    118 : 14760100DD077080;
    119 : 1477B0CEC007807F;
    120 : 147F0A208407907E;
    121 : 14790A201007A07B;
    122 : -000010000000000;
    123 : 147B8A208407C07D;
    124 : -000010000000000;
    125 : -000010000000000;
    126 : -000010000000000;
    127 : -000010000000000;
    128 : 14E3B0CEC0081090;
    129 : 14FF8A8000082087;
    130 : 14821A0104083084;
    131 : -000010000000000;
    132 : 14841A0913085086;
    133 : -000010000000000;
    134 : -000010000000000;
    135 : 148701032108808D;
    136 : 148801011808908C;
    137 : 4014898A000008A08B;
    138 : -000010000000000;
    139 : -000010000000000;
    140 : -000010000000000;
    141 : 76DDBA1C0008E08F;
    142 : -000010000000000;
    143 : -000010000000000;
    144 : 17900A0000091092;
    145 : -000010000000000;
    146 : 14F3B0CFC0093096;
    147 : 1E930A0000094095;
    148 : -000010000000000;
    149 : -000010000000000;
    150 : -000010000000000;
    151 : 85A27DC970A00000980D7;
    152 : 14980103F90990C8;
    153 : 14990101F609A0B5;
    154 : 100193F9A0A000009B0A8;
    155 : 8038F49B0A000009C0A1;
    156 : 801A1E9C0A000009D09E;
    157 : -000010000000000;
    158 : 14FFB0CD4009F0A0;
    159 : -000010000000000;
    160 : -000010000000000;
    161 : 840B15A10A00000A20A5;
    162 : 14E3B0CDC00A30A4;
    163 : -000010000000000;
    164 : -000010000000000;
    165 : 100053CA50A00000A60A7;
    166 : -000010000000000;
    167 : -000010000000000;
    168 : 80669B4A80A00000A90B0;
    169 : 14A90101900AA0AD;
    170 : 14AA01017F0AB0AC;
    171 : -000010000000000;
    172 : -000010000000000;
    173 : 14AD0101910AE0AF;
    174 : -000010000000000;
    175 : -000010000000000;
    176 : 14B001018A0B10B2;
    177 : -000010000000000;
    178 : 806E97CB20A00000B30B4;
    179 : -000010000000000;
    180 : -000010000000000;
    181 : 75CD994B50A00000B60C5;
    182 : 14A0014B60A00000B70BE;
    183 : 14F7B0CDC00B80BB;
    184 : 14FBB0CD400B90BA;
    185 : -000010000000000;
    186 : -000010000000000;
    187 : BB05FEBB0A00000BC0BD;
    188 : -000010000000000;
    189 : -000010000000000;
    190 : 14AFFFFFFFFFFF00BF0C2;
    191 : 14FFB0CDC00C00C1;
    192 : -000010000000000;
    193 : -000010000000000;
    194 : 14E3B0CDC00C30C4;
    195 : -000010000000000;
    196 : -000010000000000;
    197 : 14C50103B30C60C7;
    198 : -000010000000000;
    199 : -000010000000000;
    200 : 14C80104F10C90D6;
    201 : 14C90104C00CA0CB;
    202 : -000010000000000;
    203 : 14EBB0CDC00CC0D1;
    204 : BD12B5CC0A00000CD0CE;
    205 : -000010000000000;
    206 : 14CE0104F00CF0D0;
    207 : -000010000000000;
    208 : -000010000000000;
    209 : 14D10104E20D20D5;
    210 : 14F3B0CE400D30D4;
    211 : -000010000000000;
    212 : -000010000000000;
    213 : -000010000000000;
    214 : -000010000000000;
    215 : 14F7B0CE400D810F;
    216 : 14D80101E90D90F6;
    217 : 14FBB0CDC00DA0E9;
    218 : EEC5394DA0A00000DB0E2;
    219 : 14FBB0CD400DC0DF;
    220 : 8E1E594DC0A00000DD0DE;
    221 : -000010000000000;
    222 : -000010000000000;
    223 : 8ACC214DF0A00000E00E1;
    224 : -000010000000000;
    225 : -000010000000000;
    226 : 45F9E794E20A00000E30E6;
    227 : 14E3B0CD400E40E5;
    228 : -000010000000000;
    229 : -000010000000000;
    230 : 14E7B0CD400E70E8;
    231 : -000010000000000;
    232 : -000010000000000;
    233 : 3FC4BBB4E90A02000EA0EF;
    234 : 34012C14EA0A00000EB0EE;
    235 : 24261B74EB0A00000EC0ED;
    236 : -000010000000000;
    237 : -000010000000000;
    238 : -000010000000000;
    239 : 46E7A6D4EF0A00000F00F3;
    240 : 14F001019B0F10F2;
    241 : -000010000000000;
    242 : -000010000000000;
    243 : 481AE854F30A04000F40F5;
    244 : -000010000000000;
    245 : -000010000000000;
    246 : 14F7B0CD400F7102;
    247 : 14F70101F50F80FD;
    248 : FC8E414F80A00800F90FC;
    249 : C056194F90A00000FA0FB;
    250 : -000010000000000;
    251 : -000010000000000;
    252 : -000010000000000;
    253 : 14FD01052A0FE101;
    254 : 401DAE54FE0A00000FF100;
    255 : -000010000000000;
    256 : -000010000000000;
    257 : -000010000000000;
    258 : 15020103E8103108;
    259 : 15030101F5104107;
    260 : 1567B0CDC0105106;
    261 : -000010000000000;
    262 : -000010000000000;
    263 : -000010000000000;
    264 : 133D0EF5080A000010910C;
    265 : 156BB0CDC010A10B;
    266 : -000010000000000;
    267 : -000010000000000;
    268 : 401FF9D50C0A000010D10E;
    269 : -000010000000000;
    270 : -000010000000000;
    271 : D0D8BFD0F0A0000110115;
    272 : 1573B0CEC0111114;
    273 : D048CB7FFFFFF80112113;
    274 : -000010000000000;
    275 : -000010000000000;
    276 : -000010000000000;
    277 : 1577B0CF4011611D;
    278 : 15160102EF117118;
    279 : -000010000000000;
    280 : 20549E75180A000011911C;
    281 : 151901045511A11B;
    282 : -000010000000000;
    283 : -000010000000000;
    284 : -000010000000000;
    285 : -000010000000000;
    286 : 157FB0CE4011F16A;
    287 : 151F0101F1120165;
    288 : 1563B0CD40121148;
    289 : 7B6D207FFFFFFC00122131;
    290 : 152201019812312A;
    291 : 56EEF5D5230A0000124125;
    292 : -000010000000000;
    293 : 1525010129126127;
    294 : -000010000000000;
    295 : 574D05D5270A0400128129;
    296 : -000010000000000;
    297 : -000010000000000;
    298 : 152A01019D12B130;
    299 : 152B01019C12C12F;
    300 : 57FC91152C0A000012D12E;
    301 : -000010000000000;
    302 : -000010000000000;
    303 : -000010000000000;
    304 : -000010000000000;
    305 : 153101019813213B;
    306 : 7DAE2955320A080013313A;
    307 : 7C70A6D5330A0000134137;
    308 : 153401010D135136;
    309 : -000010000000000;
    310 : -000010000000000;
    311 : 7C7726D5370A0000138139;
    312 : -000010000000000;
    313 : -000010000000000;
    314 : -000010000000000;
    315 : D1DDB1953B0A000013C143;
    316 : CFEFCA153C0A000013D140;
    317 : 153D01019D13E13F;
    318 : -000010000000000;
    319 : -000010000000000;
    320 : D0444FFFFFFFF800141142;
    321 : -000010000000000;
    322 : -000010000000000;
    323 : D8039595430A0000144147;
    324 : 154401019A145146;
    325 : -000010000000000;
    326 : -000010000000000;
    327 : -000010000000000;
    328 : 156BB0CDC014915A;
    329 : 154901019814A14B;
    330 : -000010000000000;
    331 : 154B01019D14C153;
    332 : 154C01019914D150;
    333 : E14995954D0A000014E14F;
    334 : -000010000000000;
    335 : -000010000000000;
    336 : C0F357FFFFFFF800151152;
    337 : -000010000000000;
    338 : -000010000000000;
    339 : ADCDAE95530A0000154157;
    340 : 15540101F0155156;
    341 : -000010000000000;
    342 : -000010000000000;
    343 : 15570101F0158159;
    344 : -000010000000000;
    345 : -000010000000000;
    346 : 155A01019815B15C;
    347 : -000010000000000;
    348 : D0B1E2FFFFFFF80015D164;
    349 : 155D01019D15E161;
    350 : 7BF8CDD55E0A000015F160;
    351 : -000010000000000;
    352 : -000010000000000;
    353 : ADF71395610A0000162163;
    354 : -000010000000000;
    355 : -000010000000000;
    356 : -000010000000000;
    357 : 80008C95650A0000166169;
    358 : 7FFCFE7FFFFFFC00167168;
    359 : -000010000000000;
    360 : -000010000000000;
    361 : -000010000000000;
    362 : -000010000000000;
END;
