WIDTH=64;
DEPTH=512;
ADDRESS_RADIX=UNS;
DATA_RADIX=HEX;
CONTENT BEGIN
    0 : 242A98AB000A000000111E;
    1 : 0B010103D10020B1;
    2 : 0B63B0CE40003092;
    3 : 0B030100C400402F;
    4 : EAF88F840A000000501C;
    5 : 0BF79F3E0000600D;
    6 : 0B060A000000700C;
    7 : 0B070100B5008009;
    8 : -000010000000000;
    9 : 0B6BB0CD4000A00B;
    10 : -000010000000000;
    11 : -000010000000000;
    12 : -000010000000000;
    13 : 0B6FB0CDC000E015;
    14 : 0FDF1F100000F010;
    15 : -000010000000000;
    16 : 0B100100C0011012;
    17 : -000010000000000;
    18 : 0B120100C1013014;
    19 : -000010000000000;
    20 : -000010000000000;
    21 : 210CB3D0A0000016017;
    22 : -000010000000000;
    23 : 0B170100C0018019;
    24 : -000010000000000;
    25 : 9E8FCB190A000001A01B;
    26 : -000010000000000;
    27 : -000010000000000;
    28 : 1FF8BCAFFFFFFF0001D026;
    29 : 0B1D0100C001E01F;
    30 : -000010000000000;
    31 : 0B1F0100C1020025;
    32 : 19F429AB200A0100021024;
    33 : 0B63B0CDC0022023;
    34 : -000010000000000;
    35 : -000010000000000;
    36 : -000010000000000;
    37 : -000010000000000;
    38 : 23FFFAAB260A000002702E;
    39 : 0B270100BF028029;
    40 : -000010000000000;
    41 : 22D44B1FFFFFFE0002A02B;
    42 : -000010000000000;
    43 : 0B6BB0CD4002C02D;
    44 : -000010000000000;
    45 : -000010000000000;
    46 : -000010000000000;
    47 : 0B6FB0CDC0030065;
    48 : 0B73B0CD4003104A;
    49 : 0B310A000003203B;
    50 : 0B3201038B03303A;
    51 : 0B33010126034037;
    52 : 0B340100C9035036;
    53 : -000010000000000;
    54 : -000010000000000;
    55 : 0B37010202038039;
    56 : -000010000000000;
    57 : -000010000000000;
    58 : -000010000000000;
    59 : 7FF11FBB0A000003C043;
    60 : 0B3C0101E103D040;
    61 : 0BFD4AF70003E03F;
    62 : -000010000000000;
    63 : -000010000000000;
    64 : 0B400102C2041042;
    65 : -000010000000000;
    66 : -000010000000000;
    67 : 0B430101F7044047;
    68 : 1400D68B440A0000045046;
    69 : -000010000000000;
    70 : -000010000000000;
    71 : 76B4B5F470A0000048049;
    72 : -000010000000000;
    73 : -000010000000000;
    74 : 0B4A0A000204B056;
    75 : 0B4B01016F04C051;
    76 : 0B4C0100CC04D04E;
    77 : -000010000000000;
    78 : 0B4E0A000104F050;
    79 : -000010000000000;
    80 : -000010000000000;
    81 : 0B5101036C052055;
    82 : 0B520101FF053054;
    83 : -000010000000000;
    84 : -000010000000000;
    85 : -000010000000000;
    86 : 0B560101E505705E;
    87 : 0B570A00FE05805B;
    88 : 0B580A003E05905A;
    89 : -000010000000000;
    90 : -000010000000000;
    91 : B34CFBDB0A000005C05D;
    92 : -000010000000000;
    93 : -000010000000000;
    94 : 0B5F0B15D005F062;
    95 : 0B5FBFE338060061;
    96 : -000010000000000;
    97 : -000010000000000;
    98 : 0B620102C2063064;
    99 : -000010000000000;
    100 : -000010000000000;
    101 : 0B650101E106607D;
    102 : 0B660100F0067070;
    103 : 12DCF670A0000068069;
    104 : -000010000000000;
    105 : 81EF9FE90A000006A06D;
    106 : 802FFBEA0A000006B06C;
    107 : -000010000000000;
    108 : -000010000000000;
    109 : 0B6D0100CA06E06F;
    110 : -000010000000000;
    111 : -000010000000000;
    112 : 1098329B700A0000071078;
    113 : 0B7101017B072075;
    114 : 0B72010138073074;
    115 : -000010000000000;
    116 : -000010000000000;
    117 : 0BF5FA6D00076077;
    118 : -000010000000000;
    119 : -000010000000000;
    120 : 1888C1AFFFFFFF0007907C;
    121 : 0B7901019507A07B;
    122 : -000010000000000;
    123 : -000010000000000;
    124 : -000010000000000;
    125 : 0B7D0102C207E087;
    126 : 0B7E0A000107F080;
    127 : -000010000000000;
    128 : F19801FFFFFFF80081084;
    129 : 0B810101F4082083;
    130 : -000010000000000;
    131 : -000010000000000;
    132 : 10CA3D3B840A0000085086;
    133 : -000010000000000;
    134 : -000010000000000;
    135 : 0B8701034B08808D;
    136 : 11BBD88A000008908C;
    137 : 0B890A000308A08B;
    138 : -000010000000000;
    139 : -000010000000000;
    140 : -000010000000000;
    141 : 0B8D0103C008E08F;
    142 : -000010000000000;
    143 : 10D183F8F0A0000090091;
    144 : -000010000000000;
    145 : -000010000000000;
    146 : 0BF3B0CEC00930B0;
    147 : 0B970A208409409F;
    148 : 0B940100DD09509A;
    149 : 0B950A2010096097;
    150 : -000010000000000;
    151 : 0B978A2084098099;
    152 : -000010000000000;
    153 : -000010000000000;
    154 : 0B9A1A010409B09C;
    155 : -000010000000000;
    156 : 0B9C01016E09D09E;
    157 : -000010000000000;
    158 : -000010000000000;
    159 : 0B9F0100F50A00A1;
    160 : -000010000000000;
    161 : 400BA18A00000A20A9;
    162 : 280BA20A00000A30A8;
    163 : 0FB38A1C000A40A5;
    164 : -000010000000000;
    165 : 0FB70A1C000A60A7;
    166 : -000010000000000;
    167 : -000010000000000;
    168 : -000010000000000;
    169 : 0BA90101EF0AA0AB;
    170 : -000010000000000;
    171 : 0BAB0102DB0AC0AF;
    172 : 898000FAC0A00000AD0AE;
    173 : -000010000000000;
    174 : -000010000000000;
    175 : -000010000000000;
    176 : -000010000000000;
    177 : 0BB10A00000B20C3;
    178 : 0BB20107570B30C2;
    179 : 0BF3B0CDC00B40C1;
    180 : 0BB401050D0B50C0;
    181 : 0BF7B0CD400B60BB;
    182 : 0BB601042D0B70B8;
    183 : -000010000000000;
    184 : 0BB80104B00B90BA;
    185 : -000010000000000;
    186 : -000010000000000;
    187 : 0BBB01046A0BC0BD;
    188 : -000010000000000;
    189 : 0BBD0104ED0BE0BF;
    190 : -000010000000000;
    191 : -000010000000000;
    192 : -000010000000000;
    193 : -000010000000000;
    194 : -000010000000000;
    195 : 0BC30104F10C4105;
    196 : 0BC40103F00C50E8;
    197 : 12BDFAB00000C60CF;
    198 : 3BCEAE20000C70C8;
    199 : -000010000000000;
    200 : 0BEBB0CD400C90CE;
    201 : 0BC90103E80CA0CB;
    202 : -000010000000000;
    203 : 3BFFBA00000CC0CD;
    204 : -000010000000000;
    205 : -000010000000000;
    206 : -000010000000000;
    207 : 133A1CEBCF0A00000D00DD;
    208 : 0BF3B0CDC00D10D8;
    209 : 0BF3B0CD400D20D5;
    210 : 0BD20103E80D30D4;
    211 : -000010000000000;
    212 : -000010000000000;
    213 : 0BD50103E80D60D7;
    214 : -000010000000000;
    215 : -000010000000000;
    216 : 0BD80103E80D90DA;
    217 : -000010000000000;
    218 : 0BDA0103EA0DB0DC;
    219 : -000010000000000;
    220 : -000010000000000;
    221 : 0BFFB0CE400DE0E5;
    222 : 0BFFB0CDC00DF0E2;
    223 : 0BDF0103E80E00E1;
    224 : -000010000000000;
    225 : -000010000000000;
    226 : 0BE20103E60E30E4;
    227 : -000010000000000;
    228 : -000010000000000;
    229 : 1BF184CBE50A00000E60E7;
    230 : -000010000000000;
    231 : -000010000000000;
    232 : 0BEBB0CE400E9104;
    233 : 0BE90103FB0EA0F7;
    234 : 0BEBB0CD400EB0F2;
    235 : 0BEB0103F80EC0EF;
    236 : B646AFEC0A00000ED0EE;
    237 : -000010000000000;
    238 : -000010000000000;
    239 : 3A425BEF0A00000F00F1;
    240 : -000010000000000;
    241 : -000010000000000;
    242 : 271683FF20A00000F30F6;
    243 : 0BF30103F80F40F5;
    244 : -000010000000000;
    245 : -000010000000000;
    246 : -000010000000000;
    247 : 0BF7B0CDC00F80FD;
    248 : 0BF80104C00F90FA;
    249 : -000010000000000;
    250 : 0BFA0104C10FB0FC;
    251 : -000010000000000;
    252 : -000010000000000;
    253 : 1B08DEFFD0A00000FE101;
    254 : 0BFE0104D00FF100;
    255 : -000010000000000;
    256 : -000010000000000;
    257 : 11D985AB010A0000102103;
    258 : -000010000000000;
    259 : -000010000000000;
    260 : -000010000000000;
    261 : 0B67B0CE4010611D;
    262 : 0B67B0CDC0107114;
    263 : 0B0701077010810B;
    264 : 241FD7EB080A000010910A;
    265 : -000010000000000;
    266 : -000010000000000;
    267 : 10FF8F3A000010C10D;
    268 : -000010000000000;
    269 : 0B6FB0CD4010E111;
    270 : 0B0E01077310F110;
    271 : -000010000000000;
    272 : -000010000000000;
    273 : 416F194A0000112113;
    274 : -000010000000000;
    275 : -000010000000000;
    276 : 240269CB140A000011511C;
    277 : 273FD7CA0000116117;
    278 : -000010000000000;
    279 : 0B17010770118119;
    280 : -000010000000000;
    281 : 501F5F4A000011A11B;
    282 : -000010000000000;
    283 : -000010000000000;
    284 : -000010000000000;
    285 : -000010000000000;
    286 : 2FFF690B1E0A000011F120;
    287 : -000010000000000;
    288 : 4FFF2ECB200A0000121178;
    289 : 46E39FCB210A0000122157;
    290 : 0B220101F512314A;
    291 : 0B63B0CDC012413B;
    292 : 3407D36B240A020012512E;
    293 : 0B250100C512612D;
    294 : 0B67B0CD4012712A;
    295 : 30F6EF0B270A0000128129;
    296 : -000010000000000;
    297 : -000010000000000;
    298 : 0B2A0100BB12B12C;
    299 : -000010000000000;
    300 : -000010000000000;
    301 : -000010000000000;
    302 : 0B2E01019C12F134;
    303 : 0B6FB0CD40130133;
    304 : 3809B1CB300A0000131132;
    305 : -000010000000000;
    306 : -000010000000000;
    307 : -000010000000000;
    308 : 0B340101E9135138;
    309 : 0B77B0CD40136137;
    310 : -000010000000000;
    311 : -000010000000000;
    312 : 0B380101F413913A;
    313 : -000010000000000;
    314 : -000010000000000;
    315 : 0B3B0100C013C13D;
    316 : -000010000000000;
    317 : 34807D8B3D0A020013E145;
    318 : 32C0CAFFFFFFFE0013F142;
    319 : 0B3F0100D0140141;
    320 : -000010000000000;
    321 : -000010000000000;
    322 : 32C0E57FFFFFFE00143144;
    323 : -000010000000000;
    324 : -000010000000000;
    325 : 3FC4BBAB450A0200146147;
    326 : -000010000000000;
    327 : 467E9BCB470A0000148149;
    328 : -000010000000000;
    329 : -000010000000000;
    330 : 0B6BB0CE4014B156;
    331 : 401DAE4B4B0A000014C14D;
    332 : -000010000000000;
    333 : 0B4D0104E214E155;
    334 : 4052334B4E0A000014F152;
    335 : 0B4F0104A9150151;
    336 : -000010000000000;
    337 : -000010000000000;
    338 : 42375A4B520A0000153154;
    339 : -000010000000000;
    340 : -000010000000000;
    341 : -000010000000000;
    342 : -000010000000000;
    343 : 0B77B0CDC0158169;
    344 : 0B580101EA159164;
    345 : 0B5901012815A15B;
    346 : -000010000000000;
    347 : 4703D30B5B0A000015C15D;
    348 : -000010000000000;
    349 : 0B7FB0CD4015E161;
    350 : 4FA184CB5E0A000015F160;
    351 : -000010000000000;
    352 : -000010000000000;
    353 : 4FCD0F4B610A0000162163;
    354 : -000010000000000;
    355 : -000010000000000;
    356 : 0B6401050C165166;
    357 : -000010000000000;
    358 : 0B66010514167168;
    359 : -000010000000000;
    360 : -000010000000000;
    361 : 0B6BB0CE4016A177;
    362 : 0B6A0101EA16B172;
    363 : 0B6B01011816C16D;
    364 : -000010000000000;
    365 : 47CEE14B6D0A000016E16F;
    366 : -000010000000000;
    367 : 0B6F010190170171;
    368 : -000010000000000;
    369 : -000010000000000;
    370 : 0B72010512173174;
    371 : -000010000000000;
    372 : 474AF38B740A0000175176;
    373 : -000010000000000;
    374 : -000010000000000;
    375 : -000010000000000;
    376 : 0B7BB0CE401791C0;
    377 : 7B6ED1BFFFFFFC0017A195;
    378 : 51B5424B7A0A000017B184;
    379 : 51B52C8B7B0A000017C183;
    380 : 0B7FB0CD4017D182;
    381 : 5000494B7D0A000017E181;
    382 : 4FFF5C0B7E0A000017F180;
    383 : -000010000000000;
    384 : -000010000000000;
    385 : -000010000000000;
    386 : -000010000000000;
    387 : -000010000000000;
    388 : 0BE7B0CDC018518E;
    389 : 57F09FCB850A000018618D;
    390 : 0BE7B0CD4018718A;
    391 : 57ECA7CB870A0000188189;
    392 : -000010000000000;
    393 : -000010000000000;
    394 : 57C8BB8B8A0A000018B18C;
    395 : -000010000000000;
    396 : -000010000000000;
    397 : -000010000000000;
    398 : 57C9B7CB8E0A000018F194;
    399 : 57BC85CB8F0A0000190193;
    400 : 0B9001019E191192;
    401 : -000010000000000;
    402 : -000010000000000;
    403 : -000010000000000;
    404 : -000010000000000;
    405 : 0BF7B0CDC01961AD;
    406 : 0BF7B0CD401971A2;
    407 : 8000AC8B970A000019819D;
    408 : 0B980103EE19919C;
    409 : 7FFD868B990A000019A19B;
    410 : -000010000000000;
    411 : -000010000000000;
    412 : -000010000000000;
    413 : 0B9D0101F119E1A1;
    414 : 0B9E01019819F1A0;
    415 : -000010000000000;
    416 : -000010000000000;
    417 : -000010000000000;
    418 : 8004A20BA20A00001A31A6;
    419 : 7FFA0F0BA30A00001A41A5;
    420 : -000010000000000;
    421 : -000010000000000;
    422 : D001C88BA60A00001A71AA;
    423 : CFF3428BA70A00001A81A9;
    424 : -000010000000000;
    425 : -000010000000000;
    426 : 0BAA0101991AB1AC;
    427 : -000010000000000;
    428 : -000010000000000;
    429 : 900B7D0BAD0A00001AE1B5;
    430 : 0BAE0104061AF1B4;
    431 : 7FF46BCBAF0A00001B01B1;
    432 : -000010000000000;
    433 : 0BB101018B1B21B3;
    434 : -000010000000000;
    435 : -000010000000000;
    436 : -000010000000000;
    437 : AE0C960BB50A00001B61BB;
    438 : 0BB60101971B71B8;
    439 : -000010000000000;
    440 : 97DD228BB80A00001B91BA;
    441 : -000010000000000;
    442 : -000010000000000;
    443 : 0BBB0101F21BC1BF;
    444 : D04F67FFFFFFF8001BD1BE;
    445 : -000010000000000;
    446 : -000010000000000;
    447 : -000010000000000;
    448 : -000010000000000;
END;
