WIDTH=64;
DEPTH=512;
ADDRESS_RADIX=UNS;
DATA_RADIX=HEX;
CONTENT BEGIN
    0 : 1163B0CE4000110E;
    1 : 11010100C0002003;
    2 : -000010000000000;
    3 : 11030101F30040A5;
    4 : 1167B0CD40005046;
    5 : 11050A00FE00601B;
    6 : 11060A004100701A;
    7 : 11070100C300800B;
    8 : 11080A001700900A;
    9 : -000010000000000;
    10 : -000010000000000;
    11 : 110B01017E00C013;
    12 : 110C0A000300D010;
    13 : 110D0A000100E00F;
    14 : -000010000000000;
    15 : -000010000000000;
    16 : 11100100F3011012;
    17 : -000010000000000;
    18 : -000010000000000;
    19 : 11130A0001014017;
    20 : 11140101C1015016;
    21 : -000010000000000;
    22 : -000010000000000;
    23 : 11170A003D018019;
    24 : -000010000000000;
    25 : -000010000000000;
    26 : -000010000000000;
    27 : 111B0100C901C02D;
    28 : 111C0100C101D024;
    29 : 4A89B2111D0A000001E023;
    30 : 131E0A540501F020;
    31 : -000010000000000;
    32 : 33A46131200A0000021022;
    33 : -000010000000000;
    34 : -000010000000000;
    35 : -000010000000000;
    36 : 34F40911240A020002502C;
    37 : 1127FB5D58026029;
    38 : 11260A61DB027028;
    39 : -000010000000000;
    40 : -000010000000000;
    41 : 3E385DA90A000002A02B;
    42 : -000010000000000;
    43 : -000010000000000;
    44 : -000010000000000;
    45 : 51B617512D0A000002E037;
    46 : 112E0100F002F030;
    47 : -000010000000000;
    48 : 11300101E5031034;
    49 : 1131010183032033;
    50 : -000010000000000;
    51 : -000010000000000;
    52 : 11340101E9035036;
    53 : -000010000000000;
    54 : -000010000000000;
    55 : 113701019803803F;
    56 : 11380100F903903C;
    57 : 7DDC633FFFFFFC0003A03B;
    58 : -000010000000000;
    59 : -000010000000000;
    60 : 113C01012A03D03E;
    61 : -000010000000000;
    62 : -000010000000000;
    63 : 113F01019D040043;
    64 : 7D02DD7FFFFFFC00041042;
    65 : -000010000000000;
    66 : -000010000000000;
    67 : AE3A8391430A0000044045;
    68 : -000010000000000;
    69 : -000010000000000;
    70 : 1167B0CDC0047078;
    71 : 11470100C5048059;
    72 : 3D9AB7D1480A0000049058;
    73 : 11490100C404A051;
    74 : 21D557E0A000004B04E;
    75 : 114B0100C104C04D;
    76 : -000010000000000;
    77 : -000010000000000;
    78 : 114E0100C104F050;
    79 : -000010000000000;
    80 : -000010000000000;
    81 : 13510FBCD6052055;
    82 : 11520A0048053054;
    83 : -000010000000000;
    84 : -000010000000000;
    85 : 79DFD5D50A0000056057;
    86 : -000010000000000;
    87 : -000010000000000;
    88 : -000010000000000;
    89 : 800515590A000005A069;
    90 : 917315A0A000005B062;
    91 : 115FBED79805C05F;
    92 : 115C0100F005D05E;
    93 : -000010000000000;
    94 : -000010000000000;
    95 : 515FCAC000060061;
    96 : -000010000000000;
    97 : -000010000000000;
    98 : A001D6A0A0000063066;
    99 : 99731730A0000064065;
    100 : -000010000000000;
    101 : -000010000000000;
    102 : 11660101E8067068;
    103 : -000010000000000;
    104 : -000010000000000;
    105 : 4FFFC151690A000006A071;
    106 : 116A01017C06B06E;
    107 : 116B01012A06C06D;
    108 : -000010000000000;
    109 : -000010000000000;
    110 : 4D9AC196E0A000006F070;
    111 : -000010000000000;
    112 : -000010000000000;
    113 : 7FF027FFFFFFFC00072075;
    114 : 1172010198073074;
    115 : -000010000000000;
    116 : -000010000000000;
    117 : D017A27FFFFFF800076077;
    118 : -000010000000000;
    119 : -000010000000000;
    120 : 11780101E5079090;
    121 : 117901017C07A087;
    122 : 117A0A0B5B07B082;
    123 : 117B01013607C07F;
    124 : 117C0A003707D07E;
    125 : -000010000000000;
    126 : -000010000000000;
    127 : 117F01013B080081;
    128 : -000010000000000;
    129 : -000010000000000;
    130 : 472B0AD1820A0000083086;
    131 : 2426017FFFFFFE00084085;
    132 : -000010000000000;
    133 : -000010000000000;
    134 : -000010000000000;
    135 : D0B1E2FFFFFFF80008808F;
    136 : 5134D911880A000008908C;
    137 : 11FDFA6D0008A08B;
    138 : -000010000000000;
    139 : -000010000000000;
    140 : 7F78447FFFFFF80008D08E;
    141 : -000010000000000;
    142 : -000010000000000;
    143 : -000010000000000;
    144 : A801D900A000009109E;
    145 : 9801D910A0000092099;
    146 : 11920101F2093096;
    147 : 11930101E9094095;
    148 : -000010000000000;
    149 : -000010000000000;
    150 : 11964E66F7097098;
    151 : -000010000000000;
    152 : -000010000000000;
    153 : 11990101EB09A09D;
    154 : 119A0101E709B09C;
    155 : -000010000000000;
    156 : -000010000000000;
    157 : -000010000000000;
    158 : 119E0101E809F0A0;
    159 : -000010000000000;
    160 : 11A00101F10A10A4;
    161 : B7C83511A10A00000A20A3;
    162 : -000010000000000;
    163 : -000010000000000;
    164 : -000010000000000;
    165 : 11A50A00000A60C1;
    166 : 11E7B0CDC00A70C0;
    167 : 11E7B0CD400A80B7;
    168 : 11A801031B0A90AA;
    169 : -000010000000000;
    170 : 11AA01042D0AB0B2;
    171 : 11AB01038B0AC0AF;
    172 : 11AC01033E0AD0AE;
    173 : -000010000000000;
    174 : -000010000000000;
    175 : 11AF0103DA0B00B1;
    176 : -000010000000000;
    177 : -000010000000000;
    178 : 11B20104B00B30B4;
    179 : -000010000000000;
    180 : 11B40107570B50B6;
    181 : -000010000000000;
    182 : -000010000000000;
    183 : 11B70103260B80B9;
    184 : -000010000000000;
    185 : 11B90104600BA0BB;
    186 : -000010000000000;
    187 : 11BB0104ED0BC0BD;
    188 : -000010000000000;
    189 : 11BD0106690BE0BF;
    190 : -000010000000000;
    191 : -000010000000000;
    192 : -000010000000000;
    193 : 11C10103FB0C20F1;
    194 : 11C20103EC0C30E0;
    195 : 11E3B0CDC00C40D3;
    196 : 11E7B0CD400C50CC;
    197 : 11C50101F50C60C9;
    198 : E29ABDC60A00000C70C8;
    199 : -000010000000000;
    200 : -000010000000000;
    201 : 11C90103C00CA0CB;
    202 : -000010000000000;
    203 : -000010000000000;
    204 : B5F6FDFFFFFFF800CD0D0;
    205 : 14AFFFFFFFFFFF00CE0CF;
    206 : -000010000000000;
    207 : -000010000000000;
    208 : 17255BD1D00A00000D10D2;
    209 : -000010000000000;
    210 : -000010000000000;
    211 : 11D30102C20D40D9;
    212 : 11D40101F50D50D8;
    213 : 11D50101F40D60D7;
    214 : -000010000000000;
    215 : -000010000000000;
    216 : -000010000000000;
    217 : 11D90103D10DA0DD;
    218 : 11DA0102C30DB0DC;
    219 : -000010000000000;
    220 : -000010000000000;
    221 : 134813B1DD0A00000DE0DF;
    222 : -000010000000000;
    223 : -000010000000000;
    224 : 11E3B0CDC00E10E8;
    225 : 80048211E10A00000E20E7;
    226 : 7FB84551E20A00000E30E6;
    227 : 11E3B0CD400E40E5;
    228 : -000010000000000;
    229 : -000010000000000;
    230 : -000010000000000;
    231 : -000010000000000;
    232 : 11E80103ED0E90EC;
    233 : 40004DB3ED0A00000EA0EB;
    234 : -000010000000000;
    235 : -000010000000000;
    236 : 83E74D5EC0A00000ED0F0;
    237 : D2311EF0A00000EE0EF;
    238 : -000010000000000;
    239 : -000010000000000;
    240 : -000010000000000;
    241 : 4731CAD1F10A00000F210D;
    242 : 11F3B0CDC00F3102;
    243 : 11F301052A0F40FB;
    244 : 11F7B0CD400F50F8;
    245 : 40058631F50A00000F60F7;
    246 : -000010000000000;
    247 : -000010000000000;
    248 : 11F80104C00F90FA;
    249 : -000010000000000;
    250 : -000010000000000;
    251 : 11FBB0CD400FC0FF;
    252 : 1079FC2A00000FD0FE;
    253 : -000010000000000;
    254 : -000010000000000;
    255 : 27D7FF0A0000100101;
    256 : -000010000000000;
    257 : -000010000000000;
    258 : 4021903FFFFFFC00103108;
    259 : F1EBCB8000104105;
    260 : -000010000000000;
    261 : 40559F4A0000106107;
    262 : -000010000000000;
    263 : -000010000000000;
    264 : 110801052D10910C;
    265 : 40D516D1090A000010A10B;
    266 : -000010000000000;
    267 : -000010000000000;
    268 : -000010000000000;
    269 : -000010000000000;
    270 : 40110E4A000010F13A;
    271 : 116FB0CEC011012D;
    272 : 11100100DD111118;
    273 : 11170A2084112117;
    274 : 11120A2010113114;
    275 : -000010000000000;
    276 : 11178A2084115116;
    277 : -000010000000000;
    278 : -000010000000000;
    279 : -000010000000000;
    280 : 1118010399119128;
    281 : 111901015F11A123;
    282 : 111A0100F511B11C;
    283 : -000010000000000;
    284 : 111C0A090411D11E;
    285 : -000010000000000;
    286 : 20131E0A000011F122;
    287 : 115F9B8104120121;
    288 : -000010000000000;
    289 : -000010000000000;
    290 : -000010000000000;
    291 : 13B30A1C00124125;
    292 : -000010000000000;
    293 : 17B70A1C00126127;
    294 : -000010000000000;
    295 : -000010000000000;
    296 : 11A80A013812912A;
    297 : -000010000000000;
    298 : 712A2E000012B12C;
    299 : -000010000000000;
    300 : -000010000000000;
    301 : 116FB0CFC012E139;
    302 : 112E01039912F130;
    303 : -000010000000000;
    304 : 11300103F2131138;
    305 : 1173B0CF40132133;
    306 : -000010000000000;
    307 : 915330A0000134137;
    308 : 15340A0000135136;
    309 : -000010000000000;
    310 : -000010000000000;
    311 : -000010000000000;
    312 : -000010000000000;
    313 : -000010000000000;
    314 : D0985713A0A000013B13C;
    315 : -000010000000000;
    316 : 117FB0CF4013D14C;
    317 : 113D0101F313E13F;
    318 : -000010000000000;
    319 : 113F0103EB14014B;
    320 : 11400102EF141146;
    321 : 1163B0CEC0142145;
    322 : D8D8011420A0000143144;
    323 : -000010000000000;
    324 : -000010000000000;
    325 : -000010000000000;
    326 : 1167B0CEC0147148;
    327 : -000010000000000;
    328 : 1BF184D1480A000014914A;
    329 : -000010000000000;
    330 : -000010000000000;
    331 : -000010000000000;
    332 : -000010000000000;
END;
