WIDTH=64;
DEPTH=512;
ADDRESS_RADIX=UNS;
DATA_RADIX=HEX;
CONTENT BEGIN
    0 : 242A98AC000A000000115A;
    1 : 0C63B0CE40002127;
    2 : 0C63B0CD40003074;
    3 : 0C030100C4004015;
    4 : 0C040100C0005006;
    5 : -000010000000000;
    6 : 0C060100C1007014;
    7 : 0E7F6EFC0000800B;
    8 : 0C080A001700900A;
    9 : -000010000000000;
    10 : -000010000000000;
    11 : 7EADFB4A000000C00F;
    12 : 5F9DBE0C0000D00E;
    13 : -000010000000000;
    14 : -000010000000000;
    15 : C71E12C0F0A0000010013;
    16 : 663AF6E100A0040011012;
    17 : -000010000000000;
    18 : -000010000000000;
    19 : -000010000000000;
    20 : -000010000000000;
    21 : 0C150101F5016053;
    22 : 7F4DADD60A0000017034;
    23 : 95C8DB70A0000018027;
    24 : 0C180A0002019020;
    25 : 0C1901010201A01D;
    26 : 0C1A0100C901B01C;
    27 : -000010000000000;
    28 : -000010000000000;
    29 : 0C1D01019E01E01F;
    30 : -000010000000000;
    31 : -000010000000000;
    32 : 0C200100F0021024;
    33 : 0C33CBED20022023;
    34 : -000010000000000;
    35 : -000010000000000;
    36 : 0C240100F9025026;
    37 : -000010000000000;
    38 : -000010000000000;
    39 : BB5EE670A000002802D;
    40 : A7BCE280A000002902A;
    41 : -000010000000000;
    42 : 0C2A01011E02B02C;
    43 : -000010000000000;
    44 : -000010000000000;
    45 : 0C2D0101E802E031;
    46 : 565FBEEE0A000002F030;
    47 : -000010000000000;
    48 : -000010000000000;
    49 : 52369DB10A0000032033;
    50 : -000010000000000;
    51 : -000010000000000;
    52 : 1230D49C340A0000035044;
    53 : FF1D8CB50A000003603D;
    54 : 845DBD360A000003703A;
    55 : 0C370100CE038039;
    56 : -000010000000000;
    57 : -000010000000000;
    58 : C402FF3A0A000003B03C;
    59 : -000010000000000;
    60 : -000010000000000;
    61 : 834B13C3D0A000003E041;
    62 : 0C3E01017B03F040;
    63 : -000010000000000;
    64 : -000010000000000;
    65 : DFA1DBC410A0000042043;
    66 : -000010000000000;
    67 : -000010000000000;
    68 : 1FFF453C440A000004504C;
    69 : 13FCCEDC450A0000046049;
    70 : 0C460100CA047048;
    71 : -000010000000000;
    72 : -000010000000000;
    73 : 17C3B1BC490A000004A04B;
    74 : -000010000000000;
    75 : -000010000000000;
    76 : 20CF3B6C4C0A000004D050;
    77 : 201CA5EC4D0A000004E04F;
    78 : -000010000000000;
    79 : -000010000000000;
    80 : 2141EAEC500A0000051052;
    81 : -000010000000000;
    82 : -000010000000000;
    83 : 0C530103FB054065;
    84 : 0C540A000005505C;
    85 : 0C5501031B056057;
    86 : -000010000000000;
    87 : 0C5701033E058059;
    88 : -000010000000000;
    89 : 0C590103DA05A05B;
    90 : -000010000000000;
    91 : -000010000000000;
    92 : 0C5C0102C205D05E;
    93 : -000010000000000;
    94 : 0C5E0102C305F062;
    95 : 34DDF7B0000060061;
    96 : -000010000000000;
    97 : -000010000000000;
    98 : 0C620103C0063064;
    99 : -000010000000000;
    100 : -000010000000000;
    101 : 0C650A000006606D;
    102 : 0C660104B0067068;
    103 : -000010000000000;
    104 : 0C6801074106906C;
    105 : 0C6901054306A06B;
    106 : -000010000000000;
    107 : -000010000000000;
    108 : -000010000000000;
    109 : 241FD7EC6D0A000006E073;
    110 : ED7F1E800006F070;
    111 : -000010000000000;
    112 : ED716B0000071072;
    113 : -000010000000000;
    114 : -000010000000000;
    115 : -000010000000000;
    116 : 0C77B0CDC00750C4;
    117 : 0C7501034A076097;
    118 : 0C760100C0077078;
    119 : -000010000000000;
    120 : 80050D780A0000079088;
    121 : 818FF790A000007A081;
    122 : 0C7A0A000207B07E;
    123 : 0C7B01016F07C07D;
    124 : -000010000000000;
    125 : -000010000000000;
    126 : 0C7E0AFFF107F080;
    127 : -000010000000000;
    128 : -000010000000000;
    129 : 0C810100C6082085;
    130 : 723F1D820A0000083084;
    131 : -000010000000000;
    132 : -000010000000000;
    133 : A000C8D0A0000086087;
    134 : -000010000000000;
    135 : -000010000000000;
    136 : 0C880101E9089090;
    137 : 1002BBD890A000008A08D;
    138 : 0C8A0100F908B08C;
    139 : -000010000000000;
    140 : -000010000000000;
    141 : 10E066DC8D0A000008E08F;
    142 : -000010000000000;
    143 : -000010000000000;
    144 : 4240A9FFFFFFFC0091094;
    145 : 0C910101F8092093;
    146 : -000010000000000;
    147 : -000010000000000;
    148 : EFF8D9C940A0000095096;
    149 : -000010000000000;
    150 : -000010000000000;
    151 : 0C970103FB0980B3;
    152 : 14AFFFFFFFFFFF00990A8;
    153 : 0C990103F009A0A1;
    154 : 10D7C3E9A0A000009B09E;
    155 : 0C9B0103D009C09D;
    156 : -000010000000000;
    157 : -000010000000000;
    158 : 0C9E0103DD09F0A0;
    159 : -000010000000000;
    160 : -000010000000000;
    161 : 0CA10103F80A20A5;
    162 : 0CA20103F10A30A4;
    163 : -000010000000000;
    164 : -000010000000000;
    165 : 84C5EDE50A00000A60A7;
    166 : -000010000000000;
    167 : -000010000000000;
    168 : 13381C3FFFFFFF000A90AE;
    169 : 0CA90103C00AA0AB;
    170 : -000010000000000;
    171 : 0CAB0103EA0AC0AD;
    172 : -000010000000000;
    173 : -000010000000000;
    174 : 0CAE0103E80AF0B0;
    175 : -000010000000000;
    176 : 1341173CB00A00000B10B2;
    177 : -000010000000000;
    178 : -000010000000000;
    179 : 0CB301052A0B40BB;
    180 : 240BA02CB40A00000B50BA;
    181 : 0CB50104C00B60B7;
    182 : -000010000000000;
    183 : DFBFBF00000B80B9;
    184 : -000010000000000;
    185 : -000010000000000;
    186 : -000010000000000;
    187 : 0CBB0A00000BC0BF;
    188 : 0CBC0106690BD0BE;
    189 : -000010000000000;
    190 : -000010000000000;
    191 : 27FDBF8A00000C00C1;
    192 : -000010000000000;
    193 : 0CC10107700C20C3;
    194 : -000010000000000;
    195 : -000010000000000;
    196 : 0CC40101E10C50F2;
    197 : 0CC50100F00C60D5;
    198 : 0CC60100C50C70CE;
    199 : 0CC70100C00C80C9;
    200 : -000010000000000;
    201 : 0CC90100C10CA0CB;
    202 : -000010000000000;
    203 : 2156FFB4A00000CC0CD;
    204 : -000010000000000;
    205 : -000010000000000;
    206 : 739E1FCE0A00000CF0D0;
    207 : -000010000000000;
    208 : 802FDDD00A00000D10D2;
    209 : -000010000000000;
    210 : 0CD20100CA0D30D4;
    211 : -000010000000000;
    212 : -000010000000000;
    213 : 0CD501017C0D60E5;
    214 : 0CF7CEEF400D70DE;
    215 : 0CD70A0B5B0D80DB;
    216 : 0CD801013E0D90DA;
    217 : -000010000000000;
    218 : -000010000000000;
    219 : 0CDB0101340DC0DD;
    220 : -000010000000000;
    221 : -000010000000000;
    222 : 0CDE0100FC0DF0E2;
    223 : 5A836CDF8A00000E00E1;
    224 : -000010000000000;
    225 : -000010000000000;
    226 : 0CE20101210E30E4;
    227 : -000010000000000;
    228 : -000010000000000;
    229 : 0CE50101CD0E60ED;
    230 : 0CE60101A10E70EA;
    231 : 0CE70101830E80E9;
    232 : -000010000000000;
    233 : -000010000000000;
    234 : 0CEA0101C20EB0EC;
    235 : -000010000000000;
    236 : -000010000000000;
    237 : 0CED0101E00EE0EF;
    238 : -000010000000000;
    239 : 676FCCFF8A80000F00F1;
    240 : -000010000000000;
    241 : -000010000000000;
    242 : 0CF20103D10F310E;
    243 : 0CF30102C20F4103;
    244 : 0CF40101F30F50FC;
    245 : 9800CF50A00000F60F9;
    246 : 0CF60A00140F70F8;
    247 : -000010000000000;
    248 : -000010000000000;
    249 : A800CF90A00000FA0FB;
    250 : -000010000000000;
    251 : -000010000000000;
    252 : 45FF11CFC0A00000FD100;
    253 : FCD94EFD0A00000FE0FF;
    254 : -000010000000000;
    255 : -000010000000000;
    256 : 22DB642D000A0000101102;
    257 : -000010000000000;
    258 : -000010000000000;
    259 : 0D0301034B104109;
    260 : 289F5C9A0000105108;
    261 : 0D050A0003106107;
    262 : -000010000000000;
    263 : -000010000000000;
    264 : -000010000000000;
    265 : 10D183F090A000010A10B;
    266 : -000010000000000;
    267 : 0D0B0103BC10C10D;
    268 : -000010000000000;
    269 : -000010000000000;
    270 : 0D0E0103F010F11A;
    271 : 134813BD0F0A0000110115;
    272 : 14D31CB4000111112;
    273 : -000010000000000;
    274 : 133B1C2D120A0000113114;
    275 : -000010000000000;
    276 : -000010000000000;
    277 : 13A9F41D150A0000116117;
    278 : -000010000000000;
    279 : 14CAFCDD170A0000118119;
    280 : -000010000000000;
    281 : -000010000000000;
    282 : 0D1A0103FB11B122;
    283 : 0D1B0103F811C11F;
    284 : 0D1C0103F111D11E;
    285 : -000010000000000;
    286 : -000010000000000;
    287 : 90D764F5F0A0000120121;
    288 : -000010000000000;
    289 : -000010000000000;
    290 : 0D220A0000123124;
    291 : -000010000000000;
    292 : 0D2401052B125126;
    293 : -000010000000000;
    294 : -000010000000000;
    295 : 0D67B0CEC0128149;
    296 : 400D288A0000129142;
    297 : 0D290100DD12A131;
    298 : 0D2F0A208412B130;
    299 : 0D2B0A201012C12D;
    300 : -000010000000000;
    301 : 0D2F8A208412E12F;
    302 : -000010000000000;
    303 : -000010000000000;
    304 : -000010000000000;
    305 : 0DFF8A8000132137;
    306 : 0D3201015F133136;
    307 : 0D3301013C134135;
    308 : -000010000000000;
    309 : -000010000000000;
    310 : -000010000000000;
    311 : 0DB70A000013813B;
    312 : 0D380102B613913A;
    313 : -000010000000000;
    314 : -000010000000000;
    315 : 0D3B01013E13C13D;
    316 : -000010000000000;
    317 : 0FBF0A1C0013E141;
    318 : 0FBE0A1C0013F140;
    319 : -000010000000000;
    320 : -000010000000000;
    321 : -000010000000000;
    322 : 0D420101EF143144;
    323 : -000010000000000;
    324 : D048CAFFFFFFF80145146;
    325 : -000010000000000;
    326 : D390ACD460A0080147148;
    327 : -000010000000000;
    328 : -000010000000000;
    329 : 0D490103DD14A14B;
    330 : -000010000000000;
    331 : 0D6BB0CF4014C151;
    332 : 0D4C0103ED14D150;
    333 : 1BF184CD4D0A000014E14F;
    334 : -000010000000000;
    335 : -000010000000000;
    336 : -000010000000000;
    337 : 0D510103ED152159;
    338 : 0D73B0CFC0153158;
    339 : 91D530A0000154157;
    340 : 0D540A0000155156;
    341 : -000010000000000;
    342 : -000010000000000;
    343 : -000010000000000;
    344 : -000010000000000;
    345 : -000010000000000;
    346 : 0D5A0100C015B15C;
    347 : -000010000000000;
    348 : 4FFF933FFFFFFC0015D1BC;
    349 : 0D7FB0CDC015E19F;
    350 : 0D5E0101E915F184;
    351 : 0D5F0101E4160177;
    352 : 0D600100C516116E;
    353 : 0D63B0CD40162169;
    354 : 0D620100C1163166;
    355 : 33A4612D630A0000164165;
    356 : -000010000000000;
    357 : -000010000000000;
    358 : 0D660100C4167168;
    359 : -000010000000000;
    360 : -000010000000000;
    361 : 0D690100C216A16B;
    362 : -000010000000000;
    363 : 2C45A54D6B0A000016C16D;
    364 : -000010000000000;
    365 : -000010000000000;
    366 : 0D6E01012916F170;
    367 : -000010000000000;
    368 : 0D73B0CD40171174;
    369 : 0D7101019D172173;
    370 : -000010000000000;
    371 : -000010000000000;
    372 : 3FE5E8AD740A0200175176;
    373 : -000010000000000;
    374 : -000010000000000;
    375 : 3F26529FFFFFFE00178179;
    376 : -000010000000000;
    377 : 0D7BB0CD4017A17F;
    378 : 486C0B0D7A0A000017B17C;
    379 : -000010000000000;
    380 : 4CD10C7FFFFFFC0017D17E;
    381 : -000010000000000;
    382 : -000010000000000;
    383 : 0D7F0101E6180181;
    384 : -000010000000000;
    385 : 0D810101E8182183;
    386 : -000010000000000;
    387 : -000010000000000;
    388 : 0D840104C818518E;
    389 : 0DE7B0CD40186187;
    390 : -000010000000000;
    391 : 4417088D870A000018818D;
    392 : 0D880101F518918C;
    393 : 0D890101F418A18B;
    394 : -000010000000000;
    395 : -000010000000000;
    396 : -000010000000000;
    397 : -000010000000000;
    398 : 0D8E0104C918F198;
    399 : 0DEFB0CD40190193;
    400 : 35A1C82D900A0000191192;
    401 : -000010000000000;
    402 : -000010000000000;
    403 : 438A1D4D930A0000194197;
    404 : 33794F7FFFFFFE00195196;
    405 : -000010000000000;
    406 : -000010000000000;
    407 : -000010000000000;
    408 : 422D220D980A000019919A;
    409 : -000010000000000;
    410 : 0D9A01051419B19E;
    411 : 0D9B01051319C19D;
    412 : -000010000000000;
    413 : -000010000000000;
    414 : -000010000000000;
    415 : 0DFFB0CE401A01BB;
    416 : 0DA00101F71A11B2;
    417 : 2F0E6B2DA10A02001A21A3;
    418 : -000010000000000;
    419 : 0DA30101961A41AB;
    420 : 3454BCEDA40A00001A51A8;
    421 : 0DA50100CF1A61A7;
    422 : -000010000000000;
    423 : -000010000000000;
    424 : 46AE008DA80A00001A91AA;
    425 : -000010000000000;
    426 : -000010000000000;
    427 : 0DAB0101E11AC1AF;
    428 : 3DC1DE1FFFFFFE001AD1AE;
    429 : -000010000000000;
    430 : -000010000000000;
    431 : 0DAF0101EA1B01B1;
    432 : -000010000000000;
    433 : -000010000000000;
    434 : 0DB20105161B31BA;
    435 : 3FFB7B2DB30A00001B41B5;
    436 : -000010000000000;
    437 : 0DB50104AF1B61B7;
    438 : -000010000000000;
    439 : 0DB70104D51B81B9;
    440 : -000010000000000;
    441 : -000010000000000;
    442 : -000010000000000;
    443 : -000010000000000;
    444 : 0DFFB0CE401BD1F4;
    445 : 0DFFB0CDC01BE1DF;
    446 : 0DBE0101F11BF1D8;
    447 : 0DFFB0CD401C01CF;
    448 : 7B6D207FFFFFFC001C11C8;
    449 : 51B6174DC10A00001C21C5;
    450 : 0DC20101921C31C4;
    451 : -000010000000000;
    452 : -000010000000000;
    453 : 0DC50101981C61C7;
    454 : -000010000000000;
    455 : -000010000000000;
    456 : D1BC850DC80A00001C91CC;
    457 : 0DC90101981CA1CB;
    458 : -000010000000000;
    459 : -000010000000000;
    460 : 0DCC0101971CD1CE;
    461 : -000010000000000;
    462 : -000010000000000;
    463 : 0DCF0101981D01D1;
    464 : -000010000000000;
    465 : 7FE86D0DD10A04001D21D5;
    466 : 0DD20101991D31D4;
    467 : -000010000000000;
    468 : -000010000000000;
    469 : 0DD501019D1D61D7;
    470 : -000010000000000;
    471 : -000010000000000;
    472 : 80008C8DD80A00001D91DE;
    473 : 0DD90103ED1DA1DD;
    474 : 7FFA0F0DDA0A00001DB1DC;
    475 : -000010000000000;
    476 : -000010000000000;
    477 : -000010000000000;
    478 : -000010000000000;
    479 : 0DDF0101F11E01EF;
    480 : D074400DE00A00001E11EE;
    481 : AE0C960DE10A00001E21E9;
    482 : 90261CFFFFFFF8001E31E6;
    483 : 0DE30101951E41E5;
    484 : -000010000000000;
    485 : -000010000000000;
    486 : 97D2210DE60A00001E71E8;
    487 : -000010000000000;
    488 : -000010000000000;
    489 : 0DE90101961EA1EB;
    490 : -000010000000000;
    491 : CFAD780DEB0A00001EC1ED;
    492 : -000010000000000;
    493 : -000010000000000;
    494 : -000010000000000;
    495 : 0DEF0103ED1F01F3;
    496 : 0DF00103EC1F11F2;
    497 : -000010000000000;
    498 : -000010000000000;
    499 : -000010000000000;
    500 : -000010000000000;
END;
