WIDTH=64;
DEPTH=512;
ADDRESS_RADIX=UNS;
DATA_RADIX=HEX;
CONTENT BEGIN
    0 : 0763B0CE40001106;
    1 : 07010100C0002003;
    2 : -000010000000000;
    3 : 4FFF933FFFFFFC000040C3;
    4 : 07040101E5005064;
    5 : 0767B0CD40006031;
    6 : 07060B001700701C;
    7 : 07070A00FE008015;
    8 : 070801017E009010;
    9 : 07090A000100A00D;
    10 : 070A0100C300B00C;
    11 : -000010000000000;
    12 : -000010000000000;
    13 : 070D0A000200E00F;
    14 : -000010000000000;
    15 : -000010000000000;
    16 : 07100A0041011014;
    17 : 07110101CF012013;
    18 : -000010000000000;
    19 : -000010000000000;
    20 : -000010000000000;
    21 : 07150A412901601B;
    22 : 071601019D01701A;
    23 : 07170A1116018019;
    24 : -000010000000000;
    25 : -000010000000000;
    26 : -000010000000000;
    27 : -000010000000000;
    28 : 071C0100C901D028;
    29 : 071D0100C101E023;
    30 : 077F6EFC0001F020;
    31 : -000010000000000;
    32 : 7EA7F94A0000021022;
    33 : -000010000000000;
    34 : -000010000000000;
    35 : 07230100C4024025;
    36 : -000010000000000;
    37 : 07250100C5026027;
    38 : -000010000000000;
    39 : -000010000000000;
    40 : 07280100F002902A;
    41 : -000010000000000;
    42 : 45F9E7C72A0A000002B02E;
    43 : 11CC90D72B0A000002C02D;
    44 : -000010000000000;
    45 : -000010000000000;
    46 : 072E01012702F030;
    47 : -000010000000000;
    48 : -000010000000000;
    49 : 0773B0CDC003204D;
    50 : 073201017C033042;
    51 : 07330100C503403B;
    52 : C2CF7C8A0000035038;
    53 : 07350100C4036037;
    54 : -000010000000000;
    55 : -000010000000000;
    56 : E2050FB80A000003903A;
    57 : -000010000000000;
    58 : -000010000000000;
    59 : 073B0100F003C03F;
    60 : 073C0100C903D03E;
    61 : -000010000000000;
    62 : -000010000000000;
    63 : 073F0A0FEE040041;
    64 : -000010000000000;
    65 : -000010000000000;
    66 : 07420101E4043048;
    67 : 07430101E1044047;
    68 : 07440101CD045046;
    69 : -000010000000000;
    70 : -000010000000000;
    71 : -000010000000000;
    72 : 33FB007C80A000004904A;
    73 : -000010000000000;
    74 : 3EA295474A0A000004B04C;
    75 : -000010000000000;
    76 : -000010000000000;
    77 : 074D0100F004E055;
    78 : F497EE0A000004F050;
    79 : -000010000000000;
    80 : 07500100CA051054;
    81 : 8092A7510A0000052053;
    82 : -000010000000000;
    83 : -000010000000000;
    84 : -000010000000000;
    85 : 075501017C05605D;
    86 : 5DE308F560A000005705A;
    87 : AD129FD70A0000058059;
    88 : -000010000000000;
    89 : -000010000000000;
    90 : 45F7053FFFFFFC0005B05C;
    91 : -000010000000000;
    92 : -000010000000000;
    93 : 07FDFA6D0005E061;
    94 : 075E2EEAA605F060;
    95 : -000010000000000;
    96 : -000010000000000;
    97 : 46E7A6C7610A0000062063;
    98 : -000010000000000;
    99 : -000010000000000;
    100 : 0767B0CDC006509E;
    101 : 0767B0CD40066083;
    102 : 07660A0000067074;
    103 : 076701040006806F;
    104 : 076801031B06906C;
    105 : 076901020206A06B;
    106 : -000010000000000;
    107 : -000010000000000;
    108 : 076C01038B06D06E;
    109 : -000010000000000;
    110 : -000010000000000;
    111 : 076F010757070073;
    112 : 0770010543071072;
    113 : -000010000000000;
    114 : -000010000000000;
    115 : -000010000000000;
    116 : FF4157740A000007507C;
    117 : 07750103FB076079;
    118 : 07770A749B077078;
    119 : -000010000000000;
    120 : -000010000000000;
    121 : 07790104E907A07B;
    122 : -000010000000000;
    123 : -000010000000000;
    124 : 10026DCF7C0A000007D080;
    125 : E0A863F7D0A000007E07F;
    126 : -000010000000000;
    127 : -000010000000000;
    128 : 07800101E9081082;
    129 : -000010000000000;
    130 : -000010000000000;
    131 : 07830103D1084091;
    132 : 07840A000108508A;
    133 : 078501031A086089;
    134 : 0786010220087088;
    135 : -000010000000000;
    136 : -000010000000000;
    137 : -000010000000000;
    138 : 078B0BEE6908B08E;
    139 : 078B01034708C08D;
    140 : -000010000000000;
    141 : -000010000000000;
    142 : 078E0102C208F090;
    143 : -000010000000000;
    144 : -000010000000000;
    145 : 07910A0000092097;
    146 : 079201050D093094;
    147 : -000010000000000;
    148 : 0794010669095096;
    149 : -000010000000000;
    150 : -000010000000000;
    151 : 07970103FB09809B;
    152 : 1E7DEAB000009909A;
    153 : -000010000000000;
    154 : -000010000000000;
    155 : 079B01052A09C09D;
    156 : -000010000000000;
    157 : -000010000000000;
    158 : 079E0103D209F0B2;
    159 : 079F0102C20A00AB;
    160 : F198017FFFFFF800A10A6;
    161 : 07A10A00020A20A3;
    162 : -000010000000000;
    163 : 07A30101F50A40A5;
    164 : -000010000000000;
    165 : -000010000000000;
    166 : 07A60101F70A70AA;
    167 : 07A70101E80A80A9;
    168 : -000010000000000;
    169 : -000010000000000;
    170 : -000010000000000;
    171 : 774FFAFFFFFFFC00AC0B1;
    172 : 07AC0A00010AD0AE;
    173 : -000010000000000;
    174 : 07AE0103C00AF0B0;
    175 : -000010000000000;
    176 : -000010000000000;
    177 : -000010000000000;
    178 : 07B20103F00B30BA;
    179 : 07B30103E80B40B5;
    180 : -000010000000000;
    181 : 07B50103EA0B60B9;
    182 : 133F1437B60A00000B70B8;
    183 : -000010000000000;
    184 : -000010000000000;
    185 : -000010000000000;
    186 : 07BA0A00000BB0BC;
    187 : -000010000000000;
    188 : 07BC0103FB0BD0C0;
    189 : 949D2AFBD0A00000BE0BF;
    190 : -000010000000000;
    191 : -000010000000000;
    192 : 07C001052B0C10C2;
    193 : -000010000000000;
    194 : -000010000000000;
    195 : 7B6ED1BFFFFFFC000C40E5;
    196 : 07E7B0CD400C50D6;
    197 : 07C50101980C60CD;
    198 : 07C601012A0C70CC;
    199 : 57697487C70A00000C80CB;
    200 : 56CF6E47C80A04000C90CA;
    201 : -000010000000000;
    202 : -000010000000000;
    203 : -000010000000000;
    204 : -000010000000000;
    205 : 51B92987CD0A00000CE0D1;
    206 : 51B43687CE0A00000CF0D0;
    207 : -000010000000000;
    208 : -000010000000000;
    209 : 07D10101990D20D5;
    210 : 57FC9107D20A00000D30D4;
    211 : -000010000000000;
    212 : -000010000000000;
    213 : -000010000000000;
    214 : 57CD37C7D60A04000D70E4;
    215 : 07F7B0CDC00D80DD;
    216 : 07D801019A0D90DC;
    217 : 07D90101960DA0DB;
    218 : -000010000000000;
    219 : -000010000000000;
    220 : -000010000000000;
    221 : 07DD01019E0DE0E3;
    222 : 57B905C7DE0A00000DF0E2;
    223 : 07DF0101870E00E1;
    224 : -000010000000000;
    225 : -000010000000000;
    226 : -000010000000000;
    227 : -000010000000000;
    228 : -000010000000000;
    229 : 8000AC87E50A00000E60F7;
    230 : 07E60103EE0E70F6;
    231 : 07E7B0CDC00E80F3;
    232 : 07EBB0CD400E90F0;
    233 : 07E90101A20EA0ED;
    234 : 07EA0100E20EB0EC;
    235 : -000010000000000;
    236 : -000010000000000;
    237 : 07ED0103EA0EE0EF;
    238 : -000010000000000;
    239 : -000010000000000;
    240 : 7FEBAEBFFFFFF4000F10F2;
    241 : -000010000000000;
    242 : -000010000000000;
    243 : 7FEAC107F30A00000F40F5;
    244 : -000010000000000;
    245 : -000010000000000;
    246 : -000010000000000;
    247 : 07F70101F10F8105;
    248 : 07F80101980F90FA;
    249 : -000010000000000;
    250 : D1CAFF07FA0A00000FB100;
    251 : 8FBF8E87FB0A00000FC0FD;
    252 : -000010000000000;
    253 : 91D75487FD0A00000FE0FF;
    254 : -000010000000000;
    255 : -000010000000000;
    256 : 0763B0CDC0101104;
    257 : 0763B0CD40102103;
    258 : -000010000000000;
    259 : -000010000000000;
    260 : -000010000000000;
    261 : -000010000000000;
    262 : 4007064A0000107134;
    263 : 3F870F4A000010812F;
    264 : 076BB0CEC0109124;
    265 : 07090A001310A10B;
    266 : -000010000000000;
    267 : 070B0100DD10C113;
    268 : 070F0A208410D112;
    269 : 070D0A201010E10F;
    270 : -000010000000000;
    271 : 070F8A2084110111;
    272 : -000010000000000;
    273 : -000010000000000;
    274 : -000010000000000;
    275 : 07FF8A800011411B;
    276 : 071401013A115116;
    277 : -000010000000000;
    278 : 07161A091311711A;
    279 : 071701016E118119;
    280 : -000010000000000;
    281 : -000010000000000;
    282 : -000010000000000;
    283 : 079B0A000011C11F;
    284 : 071C0102B611D11E;
    285 : -000010000000000;
    286 : -000010000000000;
    287 : 071F010321120121;
    288 : -000010000000000;
    289 : 77F1BA1C00122123;
    290 : -000010000000000;
    291 : -000010000000000;
    292 : 07240A4400125126;
    293 : -000010000000000;
    294 : 0726010371127128;
    295 : -000010000000000;
    296 : 072801045D12912E;
    297 : 076BB0CFC012A12D;
    298 : 1572A0A000012B12C;
    299 : -000010000000000;
    300 : -000010000000000;
    301 : -000010000000000;
    302 : -000010000000000;
    303 : 076FB0CEC0130133;
    304 : 0730010435131132;
    305 : -000010000000000;
    306 : -000010000000000;
    307 : -000010000000000;
    308 : 0777B0CF40135144;
    309 : 07350101F3136137;
    310 : -000010000000000;
    311 : 0777B0CEC013813D;
    312 : D048CA7FFFFFF8013913A;
    313 : -000010000000000;
    314 : D4700DFFFFFFF8013B13C;
    315 : -000010000000000;
    316 : -000010000000000;
    317 : 1BF184C73D0A000013E13F;
    318 : -000010000000000;
    319 : 073F0103EB140143;
    320 : 1FC403D7400A0000141142;
    321 : -000010000000000;
    322 : -000010000000000;
    323 : -000010000000000;
    324 : -000010000000000;
END;
