WIDTH=64;
DEPTH=512;
ADDRESS_RADIX=UNS;
DATA_RADIX=HEX;
CONTENT BEGIN
    0 : 06000100C0001002;
    1 : -000010000000000;
    2 : 4FFF2EC6020A0000003104;
    3 : 800006030A0000004087;
    4 : 060401034A00505A;
    5 : 9F68E850A000000603B;
    6 : 06060100F000701E;
    7 : 06070100C4008015;
    8 : 067F6EFC00009010;
    9 : 066BB0CD4000A00D;
    10 : 060A0A000200B00C;
    11 : -000010000000000;
    12 : -000010000000000;
    13 : 060D0A003800E00F;
    14 : -000010000000000;
    15 : -000010000000000;
    16 : 06100100C1011014;
    17 : 26F98F0C00012013;
    18 : -000010000000000;
    19 : -000010000000000;
    20 : -000010000000000;
    21 : 0677B0CEC001601D;
    22 : 06170A208401701A;
    23 : 06170A0000018019;
    24 : -000010000000000;
    25 : -000010000000000;
    26 : 061F7E3D8801B01C;
    27 : -000010000000000;
    28 : -000010000000000;
    29 : -000010000000000;
    30 : 061E0101F301F02C;
    31 : 061F01017E020025;
    32 : 0663B0CEC0021024;
    33 : 0663B0CDC0022023;
    34 : -000010000000000;
    35 : -000010000000000;
    36 : -000010000000000;
    37 : 06250A0000026029;
    38 : 06260101C1027028;
    39 : -000010000000000;
    40 : -000010000000000;
    41 : 06290101E902A02B;
    42 : -000010000000000;
    43 : -000010000000000;
    44 : 066FB0CDC002D034;
    45 : 062D0A000002E031;
    46 : 066FB0CD4002F030;
    47 : -000010000000000;
    48 : -000010000000000;
    49 : 0673B0CD40032033;
    50 : -000010000000000;
    51 : -000010000000000;
    52 : 0677B0CE40035038;
    53 : 06350102C2036037;
    54 : -000010000000000;
    55 : -000010000000000;
    56 : 063801034903903A;
    57 : -000010000000000;
    58 : -000010000000000;
    59 : A000E3B0A000003C043;
    60 : 067FB0CE4003D042;
    61 : 067FB0CDC003E041;
    62 : 067FB0CD4003F040;
    63 : -000010000000000;
    64 : -000010000000000;
    65 : -000010000000000;
    66 : -000010000000000;
    67 : 06430100C604404F;
    68 : 794137C40A000004504A;
    69 : 06450100C2046047;
    70 : -000010000000000;
    71 : 06470100C4048049;
    72 : -000010000000000;
    73 : -000010000000000;
    74 : 066BB0CDC004B04E;
    75 : 797D0FCB0A000004C04D;
    76 : -000010000000000;
    77 : -000010000000000;
    78 : -000010000000000;
    79 : 542046CF0A0000050055;
    80 : 0673B0CE40051054;
    81 : 0673B0CDC0052053;
    82 : -000010000000000;
    83 : -000010000000000;
    84 : -000010000000000;
    85 : 0677B0CE40056059;
    86 : 0677B0CD40057058;
    87 : -000010000000000;
    88 : -000010000000000;
    89 : -000010000000000;
    90 : 067BB0CEC005B080;
    91 : 065B0A000005C067;
    92 : 065C0103DA05D05E;
    93 : -000010000000000;
    94 : 067FB0CDC005F066;
    95 : 067FB0CD40060063;
    96 : 066001042D061062;
    97 : -000010000000000;
    98 : -000010000000000;
    99 : 0663010669064065;
    100 : -000010000000000;
    101 : -000010000000000;
    102 : -000010000000000;
    103 : 06670103FB068075;
    104 : 066BB0CE40069070;
    105 : 06690103F806A06D;
    106 : 18F6F0F000006B06C;
    107 : -000010000000000;
    108 : -000010000000000;
    109 : 066FB0CDC006E06F;
    110 : -000010000000000;
    111 : -000010000000000;
    112 : 06700103F1071074;
    113 : AEF10A0000072073;
    114 : -000010000000000;
    115 : -000010000000000;
    116 : -000010000000000;
    117 : 067501077007607B;
    118 : 06760104E907707A;
    119 : 0677B0CE40078079;
    120 : -000010000000000;
    121 : -000010000000000;
    122 : -000010000000000;
    123 : 067B01077307C07F;
    124 : 067C01077207D07E;
    125 : -000010000000000;
    126 : -000010000000000;
    127 : -000010000000000;
    128 : 06800103F1081086;
    129 : 157810A0000082085;
    130 : 07820A0000083084;
    131 : -000010000000000;
    132 : -000010000000000;
    133 : -000010000000000;
    134 : -000010000000000;
    135 : 06870101E90880D5;
    136 : 06880100C50890A4;
    137 : 34FAE6E6890A000008A0A3;
    138 : D3E4E68A0A000008B094;
    139 : D3A0A78B0A000008C093;
    140 : CB770F8C0A000008D090;
    141 : 06EFB0CD4008E08F;
    142 : -000010000000000;
    143 : -000010000000000;
    144 : CB9EEF900A0000091092;
    145 : -000010000000000;
    146 : -000010000000000;
    147 : -000010000000000;
    148 : 06F7B0CD4009509C;
    149 : 32E352E6950A0200096099;
    150 : 06960100C1097098;
    151 : -000010000000000;
    152 : -000010000000000;
    153 : 06990100C409A09B;
    154 : -000010000000000;
    155 : -000010000000000;
    156 : 069C0100C109D0A0;
    157 : 1E58713FFFFFFF0009E09F;
    158 : -000010000000000;
    159 : -000010000000000;
    160 : 26FA973FFFFFFE000A10A2;
    161 : -000010000000000;
    162 : -000010000000000;
    163 : -000010000000000;
    164 : 06E7B0CDC00A50C4;
    165 : 06E7B0CD400A60B5;
    166 : 06A60101900A70AE;
    167 : 5B0342EA70A00000A80AB;
    168 : 845E1EA80A00000A90AA;
    169 : -000010000000000;
    170 : -000010000000000;
    171 : 46E727C6AB0A00000AC0AD;
    172 : -000010000000000;
    173 : -000010000000000;
    174 : 06AE0101E40AF0B2;
    175 : 63764DEAF0A00000B00B1;
    176 : -000010000000000;
    177 : -000010000000000;
    178 : 06B20101E50B30B4;
    179 : -000010000000000;
    180 : -000010000000000;
    181 : 45EDB706B50A00000B60BD;
    182 : 1009CF16B60A00000B70BA;
    183 : 1002BB7B70A00000B80B9;
    184 : -000010000000000;
    185 : -000010000000000;
    186 : 06BA0101980BB0BC;
    187 : -000010000000000;
    188 : -000010000000000;
    189 : 4704F4C6BD0A00000BE0C1;
    190 : 46F0EC46BE0A00000BF0C0;
    191 : -000010000000000;
    192 : -000010000000000;
    193 : 4FCB0F46C10A00000C20C3;
    194 : -000010000000000;
    195 : -000010000000000;
    196 : 06E7B0CE400C50D4;
    197 : 108AFD96C50A00000C60CD;
    198 : 84003EC60A00000C70CA;
    199 : 803007C70A00000C80C9;
    200 : -000010000000000;
    201 : -000010000000000;
    202 : 06CA0100C80CB0CC;
    203 : -000010000000000;
    204 : -000010000000000;
    205 : 3F14B91FFFFFFE000CE0D1;
    206 : 06CE0101980CF0D0;
    207 : -000010000000000;
    208 : -000010000000000;
    209 : 06D10101290D20D3;
    210 : -000010000000000;
    211 : -000010000000000;
    212 : -000010000000000;
    213 : 06F7B0CE400D60F7;
    214 : 06D601052A0D70F6;
    215 : 06D70103C00D80E7;
    216 : 4240A97FFFFFFC00D90E0;
    217 : 06FBB0CD400DA0DD;
    218 : 06DA0101F60DB0DC;
    219 : -000010000000000;
    220 : -000010000000000;
    221 : 1007B3FDD0A00000DE0DF;
    222 : -000010000000000;
    223 : -000010000000000;
    224 : 06E3B0CD400E10E4;
    225 : 06E10101F60E20E3;
    226 : -000010000000000;
    227 : -000010000000000;
    228 : 42FF0CC6E40A00000E50E6;
    229 : -000010000000000;
    230 : -000010000000000;
    231 : 133A1CE6E70A00000E80EF;
    232 : 06E80103F10E90EC;
    233 : 06EBB0CDC00EA0EB;
    234 : -000010000000000;
    235 : -000010000000000;
    236 : 06EFB0CDC00ED0EE;
    237 : -000010000000000;
    238 : -000010000000000;
    239 : 400EDD86EF0A00000F00F3;
    240 : 06F3B0CDC00F10F2;
    241 : -000010000000000;
    242 : -000010000000000;
    243 : 405FC406F30A00000F40F5;
    244 : -000010000000000;
    245 : -000010000000000;
    246 : -000010000000000;
    247 : D0C8C06F70A00000F80F9;
    248 : -000010000000000;
    249 : 06FBB0CF400FA103;
    250 : 06FA0104550FB102;
    251 : 06FB0102EF0FC0FF;
    252 : D8D8006FC0A00000FD0FE;
    253 : -000010000000000;
    254 : -000010000000000;
    255 : 1BF18406FF0A0000100101;
    256 : -000010000000000;
    257 : -000010000000000;
    258 : -000010000000000;
    259 : -000010000000000;
    260 : 0767B0CE4010515A;
    261 : 0767B0CDC010613D;
    262 : 07060101F1107130;
    263 : 7B66F2C7070A0000108119;
    264 : 51B658C7080A0000109110;
    265 : 070901019610A10B;
    266 : -000010000000000;
    267 : 51B0A2870B0A000010C10F;
    268 : 070C0101A110D10E;
    269 : -000010000000000;
    270 : -000010000000000;
    271 : -000010000000000;
    272 : 56E97DBFFFFFFC00111112;
    273 : -000010000000000;
    274 : 0712010198113116;
    275 : 570EA7C7130A0000114115;
    276 : -000010000000000;
    277 : -000010000000000;
    278 : 0716010199117118;
    279 : -000010000000000;
    280 : -000010000000000;
    281 : D1BC8507190A000011A129;
    282 : 077BB0CD4011B122;
    283 : 071B01019811C11F;
    284 : 071C0100F911D11E;
    285 : -000010000000000;
    286 : -000010000000000;
    287 : CFEFCA071F0A0000120121;
    288 : -000010000000000;
    289 : -000010000000000;
    290 : CFE58107220A0000123126;
    291 : 0723010198124125;
    292 : -000010000000000;
    293 : -000010000000000;
    294 : D003D907260A0000127128;
    295 : -000010000000000;
    296 : -000010000000000;
    297 : 072901019812A12B;
    298 : -000010000000000;
    299 : D80395872B0A000012C12F;
    300 : D6FF6E072C0A000012D12E;
    301 : -000010000000000;
    302 : -000010000000000;
    303 : -000010000000000;
    304 : 07300103ED13113C;
    305 : 8008CB7FFFFFF80013213B;
    306 : 0773B0CD40133136;
    307 : 7FFD8687330A0000134135;
    308 : -000010000000000;
    309 : -000010000000000;
    310 : 07360103EC137138;
    311 : -000010000000000;
    312 : 7EC0A287380A000013913A;
    313 : -000010000000000;
    314 : -000010000000000;
    315 : -000010000000000;
    316 : -000010000000000;
    317 : D012567FFFFFF80013E159;
    318 : 073E0101F313F154;
    319 : AE0C96073F0A000014014D;
    320 : 9011CDFFFFFFF800141148;
    321 : 7F8D9687410A0000142145;
    322 : 58388D47420A0000143144;
    323 : -000010000000000;
    324 : -000010000000000;
    325 : 8FCD3307450A0000146147;
    326 : -000010000000000;
    327 : -000010000000000;
    328 : 074801019814914A;
    329 : -000010000000000;
    330 : 074A01019B14B14C;
    331 : -000010000000000;
    332 : -000010000000000;
    333 : CFE0977FFFFFF80014E153;
    334 : 074E01019B14F150;
    335 : -000010000000000;
    336 : 07500101EE151152;
    337 : -000010000000000;
    338 : -000010000000000;
    339 : -000010000000000;
    340 : 07540103ED155158;
    341 : 07550103EC156157;
    342 : -000010000000000;
    343 : -000010000000000;
    344 : -000010000000000;
    345 : -000010000000000;
    346 : -000010000000000;
END;
