WIDTH=64;
DEPTH=512;
ADDRESS_RADIX=UNS;
DATA_RADIX=HEX;
CONTENT BEGIN
    0 : 242A98AD000A0000001144;
    1 : 0D63B0CE40002113;
    2 : 0D020103D100309E;
    3 : 0D63B0CD4000404D;
    4 : 0D040100C4005024;
    5 : F47A3D850A0000006013;
    6 : 0D060100C0007008;
    7 : -000010000000000;
    8 : 0F7F6EFC0000900E;
    9 : 0D090100C100A00D;
    10 : 0D0A0A001700B00C;
    11 : -000010000000000;
    12 : -000010000000000;
    13 : -000010000000000;
    14 : 2FFE8F0C0000F010;
    15 : -000010000000000;
    16 : 1EACD710A0000011012;
    17 : -000010000000000;
    18 : -000010000000000;
    19 : FE2090D130A000001401B;
    20 : 0D140100C0015016;
    21 : -000010000000000;
    22 : 0D160100C101701A;
    23 : 66B47ADFFFFFFC0018019;
    24 : -000010000000000;
    25 : -000010000000000;
    26 : -000010000000000;
    27 : 0D1B0100C001C01D;
    28 : -000010000000000;
    29 : 218CC8CD1D0A000001E021;
    30 : 1492F72FFFFFFF0001F020;
    31 : -000010000000000;
    32 : -000010000000000;
    33 : 218F326D210A0000022023;
    34 : -000010000000000;
    35 : -000010000000000;
    36 : 0D240A0000025032;
    37 : 0D2501038B026031;
    38 : 0D2601020202702E;
    39 : 0D2701012602802B;
    40 : 0D280100C902902A;
    41 : -000010000000000;
    42 : -000010000000000;
    43 : 0D2B0101C102C02D;
    44 : -000010000000000;
    45 : -000010000000000;
    46 : 0D2E01031B02F030;
    47 : -000010000000000;
    48 : -000010000000000;
    49 : -000010000000000;
    50 : 0D320101E5033040;
    51 : 0D330100C903403B;
    52 : 0D340100C8035038;
    53 : 0F3F5F8800036037;
    54 : -000010000000000;
    55 : -000010000000000;
    56 : 20014DB92A000003903A;
    57 : -000010000000000;
    58 : -000010000000000;
    59 : 0D3B0100F003C03D;
    60 : -000010000000000;
    61 : 0D3D0AFE3D03E03F;
    62 : -000010000000000;
    63 : -000010000000000;
    64 : 0D400103C0041048;
    65 : 100144D410A0000042045;
    66 : 0D420102C2043044;
    67 : -000010000000000;
    68 : -000010000000000;
    69 : 1008BC9D450A0000046047;
    70 : -000010000000000;
    71 : -000010000000000;
    72 : 36744D680A000004904A;
    73 : -000010000000000;
    74 : 0D4A0103D004B04C;
    75 : -000010000000000;
    76 : -000010000000000;
    77 : 0D4D0101E504E06D;
    78 : 0D4E0100C004F050;
    79 : -000010000000000;
    80 : 0D500100F0051060;
    81 : 8004DFD10A0000052059;
    82 : 0D520100C5053056;
    83 : 22CEFFF0A0000054055;
    84 : -000010000000000;
    85 : -000010000000000;
    86 : 0D560100C9057058;
    87 : -000010000000000;
    88 : -000010000000000;
    89 : E85DFD590A000005A05D;
    90 : 840AFD5A0A000005B05C;
    91 : -000010000000000;
    92 : -000010000000000;
    93 : 0D7FB0CDC005E05F;
    94 : -000010000000000;
    95 : -000010000000000;
    96 : 1009CF1D600A0000061068;
    97 : 1002BBD610A0000062065;
    98 : 0D63B0CDC0063064;
    99 : -000010000000000;
    100 : -000010000000000;
    101 : 8ACC20D650A0000066067;
    102 : -000010000000000;
    103 : -000010000000000;
    104 : 1713338FFFFFFF0006906A;
    105 : -000010000000000;
    106 : 0D6A01019606B06C;
    107 : -000010000000000;
    108 : -000010000000000;
    109 : 0D6D0102C206E087;
    110 : 0D6E0101F306F07C;
    111 : 9800D6F0A0000070077;
    112 : 0D73B0CDC0071074;
    113 : 0D710101E8072073;
    114 : -000010000000000;
    115 : -000010000000000;
    116 : 0D740101F2075076;
    117 : -000010000000000;
    118 : -000010000000000;
    119 : 0D770101E907807B;
    120 : 0D780101E807907A;
    121 : -000010000000000;
    122 : -000010000000000;
    123 : -000010000000000;
    124 : 0D7FB0CDC007D082;
    125 : 0D7D0101F507E081;
    126 : 898000D7E0A000007F080;
    127 : -000010000000000;
    128 : -000010000000000;
    129 : -000010000000000;
    130 : 0D820101F5083086;
    131 : 898000D830A0000084085;
    132 : -000010000000000;
    133 : -000010000000000;
    134 : -000010000000000;
    135 : 0D8701034A088095;
    136 : 0D8801033308908E;
    137 : 0D890102F908A08D;
    138 : 0DEBB0CDC008B08C;
    139 : -000010000000000;
    140 : -000010000000000;
    141 : -000010000000000;
    142 : 0DEFB0CDC008F092;
    143 : 0D8F010347090091;
    144 : -000010000000000;
    145 : -000010000000000;
    146 : 0D92010334093094;
    147 : -000010000000000;
    148 : -000010000000000;
    149 : 0D950103C0096097;
    150 : -000010000000000;
    151 : 0D970103C909809B;
    152 : 4335A3F980A000009909A;
    153 : -000010000000000;
    154 : -000010000000000;
    155 : 14A000D9B0A000009C09D;
    156 : -000010000000000;
    157 : -000010000000000;
    158 : 0DFFB0CDC009F0DE;
    159 : 0D9F0A00000A00B1;
    160 : 0DA00104000A10A2;
    161 : -000010000000000;
    162 : 0DE3B0CD400A30AA;
    163 : 0DA30104B00A40A5;
    164 : -000010000000000;
    165 : 0DA50107570A60A9;
    166 : 0DA60105430A70A8;
    167 : -000010000000000;
    168 : -000010000000000;
    169 : -000010000000000;
    170 : 0DAA0104ED0AB0AC;
    171 : -000010000000000;
    172 : 0DAC0106690AD0B0;
    173 : 0DAD01050D0AE0AF;
    174 : -000010000000000;
    175 : -000010000000000;
    176 : -000010000000000;
    177 : 0DB10103FB0B20CB;
    178 : 0DF3B0CD400B30BC;
    179 : 0DB30103E80B40B5;
    180 : -000010000000000;
    181 : 0DB50103E90B60B9;
    182 : 1FF7AF4E000B70B8;
    183 : -000010000000000;
    184 : -000010000000000;
    185 : 0DB90103F00BA0BB;
    186 : -000010000000000;
    187 : -000010000000000;
    188 : 0DBC0103F00BD0C4;
    189 : 10BD68FBD0A00000BE0C1;
    190 : 0DBE0103E80BF0C0;
    191 : -000010000000000;
    192 : -000010000000000;
    193 : 0DC10103E80C20C3;
    194 : -000010000000000;
    195 : -000010000000000;
    196 : 0DC40103F10C50C8;
    197 : 9AB06DC50A00000C60C7;
    198 : -000010000000000;
    199 : -000010000000000;
    200 : 0DC80A0D570C90CA;
    201 : -000010000000000;
    202 : -000010000000000;
    203 : 0DCB01052A0CC0D3;
    204 : 24220B5FFFFFFE000CD0D2;
    205 : EDDDAA00000CE0CF;
    206 : -000010000000000;
    207 : 0DEFB0CD400D00D1;
    208 : -000010000000000;
    209 : -000010000000000;
    210 : -000010000000000;
    211 : 0DF3B0CD400D40D9;
    212 : 0DD40107700D50D6;
    213 : -000010000000000;
    214 : 0DD60107730D70D8;
    215 : -000010000000000;
    216 : -000010000000000;
    217 : 0DD90107700DA0DB;
    218 : -000010000000000;
    219 : 0DDB0107730DC0DD;
    220 : -000010000000000;
    221 : -000010000000000;
    222 : 0DDE0103F00DF0F2;
    223 : 133F143DDF0A00000E00EB;
    224 : 14DF1CB40000E10E2;
    225 : -000010000000000;
    226 : 133A1D7DE20A00000E30EA;
    227 : D616FDE30A00000E40E7;
    228 : 1EBFF6AA00000E50E6;
    229 : -000010000000000;
    230 : -000010000000000;
    231 : 0DE70103E60E80E9;
    232 : -000010000000000;
    233 : -000010000000000;
    234 : -000010000000000;
    235 : 177A142DEB0A00000EC0F1;
    236 : 0DEC0103DE0ED0EE;
    237 : -000010000000000;
    238 : 0DEE0103EA0EF0F0;
    239 : -000010000000000;
    240 : -000010000000000;
    241 : -000010000000000;
    242 : 14A95DF20A00000F3102;
    243 : 0DF30A00000F40F5;
    244 : -000010000000000;
    245 : 0DF50103FB0F60FB;
    246 : 0DF60103F90F70F8;
    247 : -000010000000000;
    248 : 5DFFFA01380F90FA;
    249 : -000010000000000;
    250 : -000010000000000;
    251 : 0DFB0107700FC0FF;
    252 : EDFDCB80000FD0FE;
    253 : -000010000000000;
    254 : -000010000000000;
    255 : 0DFF010775100101;
    256 : -000010000000000;
    257 : -000010000000000;
    258 : 8029F0D020A000010310C;
    259 : 0D030104F510410B;
    260 : 4CBC5F040A0000105108;
    261 : 175B5FF50A0000106107;
    262 : -000010000000000;
    263 : -000010000000000;
    264 : CA46FD080A000010910A;
    265 : -000010000000000;
    266 : -000010000000000;
    267 : -000010000000000;
    268 : 0D0C01052F10D112;
    269 : 23DC324D0D0A000010E111;
    270 : 11D9851FFFFFFF0010F110;
    271 : -000010000000000;
    272 : -000010000000000;
    273 : -000010000000000;
    274 : -000010000000000;
    275 : 400D134A0000114135;
    276 : 0D77B0CEC0115130;
    277 : 0D150A0011116117;
    278 : -000010000000000;
    279 : 0D170100DD11811F;
    280 : 0D1F0A208411911E;
    281 : 0D190A201011A11B;
    282 : -000010000000000;
    283 : 0D1B8A208411C11D;
    284 : -000010000000000;
    285 : -000010000000000;
    286 : -000010000000000;
    287 : 3F8D1F4A000012012D;
    288 : 0D20010399121128;
    289 : 0D211A0913122125;
    290 : 0D221A0104123124;
    291 : -000010000000000;
    292 : -000010000000000;
    293 : 0FB70A1C00126127;
    294 : -000010000000000;
    295 : -000010000000000;
    296 : 0DA80A013812912A;
    297 : -000010000000000;
    298 : 7D2A2E000012B12C;
    299 : -000010000000000;
    300 : -000010000000000;
    301 : 0D2D01043512E12F;
    302 : -000010000000000;
    303 : -000010000000000;
    304 : 0F300A0000131132;
    305 : -000010000000000;
    306 : 0FB20A0000133134;
    307 : -000010000000000;
    308 : -000010000000000;
    309 : 0D77B0CF40136143;
    310 : D048CAFFFFFFF80137138;
    311 : -000010000000000;
    312 : D1782FFFFFFFF0013913A;
    313 : -000010000000000;
    314 : 0D3A0102EF13B13C;
    315 : -000010000000000;
    316 : 0D7FB0CEC013D13E;
    317 : -000010000000000;
    318 : 0D3E01045513F142;
    319 : 1BF1840D3F0A0000140141;
    320 : -000010000000000;
    321 : -000010000000000;
    322 : -000010000000000;
    323 : -000010000000000;
    324 : 2FFF690D440A0000145146;
    325 : -000010000000000;
    326 : 0D460101F5147198;
    327 : 4FFFEE8D470A0000148167;
    328 : 0D480100C014914A;
    329 : -000010000000000;
    330 : 0D4A0101E914B160;
    331 : 45FC8B4D4B0A000014C157;
    332 : 0D4C0100C514D152;
    333 : 0D4D0100C114E14F;
    334 : -000010000000000;
    335 : 34FAD4ED4F0A0200150151;
    336 : -000010000000000;
    337 : -000010000000000;
    338 : 3FF32FAD520A0000153154;
    339 : -000010000000000;
    340 : 0D5401019C155156;
    341 : -000010000000000;
    342 : -000010000000000;
    343 : 0D57010128158159;
    344 : -000010000000000;
    345 : 0D7BB0CDC015A15D;
    346 : 0D7BB0CD4015B15C;
    347 : -000010000000000;
    348 : -000010000000000;
    349 : 0D5D0101DD15E15F;
    350 : -000010000000000;
    351 : -000010000000000;
    352 : 0D600101F4161162;
    353 : -000010000000000;
    354 : 450D000D620A0000163166;
    355 : 422B47CD630A0000164165;
    356 : -000010000000000;
    357 : -000010000000000;
    358 : -000010000000000;
    359 : 0D67B0CE40168197;
    360 : 7B6D207FFFFFFC00169180;
    361 : 0D6BB0CD4016A177;
    362 : 0D6A01019816B170;
    363 : 0D6B01012A16C16F;
    364 : 5703B70D6C0A000016D16E;
    365 : -000010000000000;
    366 : -000010000000000;
    367 : -000010000000000;
    368 : 51CD284D700A0000171174;
    369 : 51B0A28D710A0000172173;
    370 : -000010000000000;
    371 : -000010000000000;
    372 : 57FC910D740A0000175176;
    373 : -000010000000000;
    374 : -000010000000000;
    375 : 0D77010197178179;
    376 : -000010000000000;
    377 : 0D7BB0CDC017A17D;
    378 : 57E8DA8D7A0A000017B17C;
    379 : -000010000000000;
    380 : -000010000000000;
    381 : 58350D4D7D0A000017E17F;
    382 : -000010000000000;
    383 : -000010000000000;
    384 : 0DE3B0CDC018118E;
    385 : 0D81010198182187;
    386 : 0DE3B0CD40183186;
    387 : 0D830100F8184185;
    388 : -000010000000000;
    389 : -000010000000000;
    390 : -000010000000000;
    391 : 0D8701019D18818B;
    392 : 0D8801019918918A;
    393 : -000010000000000;
    394 : -000010000000000;
    395 : AE28718D8B0A000018C18D;
    396 : -000010000000000;
    397 : -000010000000000;
    398 : 0D8E01019818F190;
    399 : -000010000000000;
    400 : 0D9001019E191194;
    401 : D604BC0D910A0000192193;
    402 : -000010000000000;
    403 : -000010000000000;
    404 : B0F3C8FFFFFFF800195196;
    405 : -000010000000000;
    406 : -000010000000000;
    407 : -000010000000000;
    408 : 80008C8D980A00001991B0;
    409 : 0DFBB0CE4019A1AF;
    410 : 7FFD868D9A0A000019B1AE;
    411 : 0DFBB0CDC019C1A7;
    412 : 0DFFB0CD4019D1A2;
    413 : 47325F0D9D0A000019E1A1;
    414 : 472F447FFFFFFC0019F1A0;
    415 : -000010000000000;
    416 : -000010000000000;
    417 : -000010000000000;
    418 : 0DA20105141A31A6;
    419 : 4734A64DA30A00001A41A5;
    420 : -000010000000000;
    421 : -000010000000000;
    422 : -000010000000000;
    423 : 4731CACDA70A00001A81AD;
    424 : 4021104DA80A00001A91AA;
    425 : -000010000000000;
    426 : 0DAA01052D1AB1AC;
    427 : -000010000000000;
    428 : -000010000000000;
    429 : -000010000000000;
    430 : -000010000000000;
    431 : -000010000000000;
    432 : -000010000000000;
END;
