WIDTH=64;
DEPTH=512;
ADDRESS_RADIX=UNS;
DATA_RADIX=HEX;
CONTENT BEGIN
    0 : 02000100C0001002;
    1 : -000010000000000;
    2 : 02020101F30030E8;
    3 : 020301017C004077;
    4 : 0267B0CD4000504C;
    5 : 02050A0F7C00601B;
    6 : 02060A000100700E;
    7 : 02070100C400800B;
    8 : 02080100C100900A;
    9 : -000010000000000;
    10 : -000010000000000;
    11 : 020B0100C500C00D;
    12 : -000010000000000;
    13 : -000010000000000;
    14 : 020E0A000C00F014;
    15 : 020F0A0002010011;
    16 : -000010000000000;
    17 : 02110A000A012013;
    18 : -000010000000000;
    19 : -000010000000000;
    20 : 02140100F101501A;
    21 : 02150A0041016019;
    22 : 02160A003A017018;
    23 : -000010000000000;
    24 : -000010000000000;
    25 : -000010000000000;
    26 : -000010000000000;
    27 : 021B0100F901C037;
    28 : 021C0100C901D02A;
    29 : 34F8E6421D0A020001E025;
    30 : 021E0100C101F022;
    31 : 027F6EFC00020021;
    32 : -000010000000000;
    33 : -000010000000000;
    34 : 0223FF6792023024;
    35 : -000010000000000;
    36 : -000010000000000;
    37 : 02250100C1026029;
    38 : 49DF50C2260A0400027028;
    39 : -000010000000000;
    40 : -000010000000000;
    41 : -000010000000000;
    42 : 02AF2BCF8002B032;
    43 : 022B0AFE9102C02F;
    44 : 022C0100F002D02E;
    45 : -000010000000000;
    46 : -000010000000000;
    47 : 022F1BEDE4030031;
    48 : -000010000000000;
    49 : -000010000000000;
    50 : 02320100F8033034;
    51 : -000010000000000;
    52 : 9230DC82340A0000035036;
    53 : -000010000000000;
    54 : -000010000000000;
    55 : 0237010134038045;
    56 : 023801012903903E;
    57 : 023901011F03A03B;
    58 : -000010000000000;
    59 : 02FF7B080003C03D;
    60 : -000010000000000;
    61 : -000010000000000;
    62 : 023E01012A03F042;
    63 : 239D90CA3F0A0000040041;
    64 : -000010000000000;
    65 : -000010000000000;
    66 : 02420A1630043044;
    67 : -000010000000000;
    68 : -000010000000000;
    69 : 024501013804604B;
    70 : 0246010137047048;
    71 : -000010000000000;
    72 : 46C90B800004904A;
    73 : -000010000000000;
    74 : -000010000000000;
    75 : -000010000000000;
    76 : 026FB0CEC004D076;
    77 : 024D0A0FEE04E061;
    78 : 024E0100C504F054;
    79 : 026FB0CDC0050053;
    80 : 02500A0038051052;
    81 : -000010000000000;
    82 : -000010000000000;
    83 : -000010000000000;
    84 : 02540A000B05505C;
    85 : 02550A0001056059;
    86 : 025601010E057058;
    87 : -000010000000000;
    88 : -000010000000000;
    89 : 027BB0CE4005A05B;
    90 : -000010000000000;
    91 : -000010000000000;
    92 : 025C0100F005D05E;
    93 : -000010000000000;
    94 : 025E0100F105F060;
    95 : -000010000000000;
    96 : -000010000000000;
    97 : 471ADD82610A0000062071;
    98 : 0263B0CDC006306A;
    99 : 800507630A0000064067;
    100 : 02640100F0065066;
    101 : -000010000000000;
    102 : -000010000000000;
    103 : 3434B9BFFFFFFE00068069;
    104 : -000010000000000;
    105 : -000010000000000;
    106 : 026A01013406B06E;
    107 : 026B0100C506C06D;
    108 : -000010000000000;
    109 : -000010000000000;
    110 : 026E01013806F070;
    111 : -000010000000000;
    112 : -000010000000000;
    113 : 7BEB8B3FFFFFFC00072075;
    114 : 0273B0CE40073074;
    115 : -000010000000000;
    116 : -000010000000000;
    117 : -000010000000000;
    118 : -000010000000000;
    119 : 02770101E50780B5;
    120 : D1D28502780A00000790A8;
    121 : 5033D842790A000007A099;
    122 : 02FEBBF90007B08A;
    123 : 027B0101CC07C083;
    124 : 027C1EED6F07D080;
    125 : 027FB0CDC007E07F;
    126 : -000010000000000;
    127 : -000010000000000;
    128 : 028001019D081082;
    129 : -000010000000000;
    130 : -000010000000000;
    131 : 02830101CD084087;
    132 : 02840A0020085086;
    133 : -000010000000000;
    134 : -000010000000000;
    135 : 02870101E0088089;
    136 : -000010000000000;
    137 : -000010000000000;
    138 : 02EBB0CDC008B092;
    139 : 45ED48C28B0A000008C08F;
    140 : 1009FC5A8C0A000008D08E;
    141 : -000010000000000;
    142 : -000010000000000;
    143 : 028F010197090091;
    144 : -000010000000000;
    145 : -000010000000000;
    146 : 42D6FB4000093096;
    147 : 02930101A5094095;
    148 : -000010000000000;
    149 : -000010000000000;
    150 : 0296010190097098;
    151 : -000010000000000;
    152 : -000010000000000;
    153 : 029901019D09A0A7;
    154 : 7F91733FFFFFFC0009B0A0;
    155 : 5830B9429B0A000009C09F;
    156 : 02FFB0CD4009D09E;
    157 : -000010000000000;
    158 : -000010000000000;
    159 : -000010000000000;
    160 : 02E3B0CDC00A10A4;
    161 : CFDC4E82A10A00000A20A3;
    162 : -000010000000000;
    163 : -000010000000000;
    164 : 02A40101980A50A6;
    165 : -000010000000000;
    166 : -000010000000000;
    167 : -000010000000000;
    168 : 02A80101990A90B4;
    169 : 02EBB0CE400AA0B3;
    170 : 02EBB0CDC00AB0B2;
    171 : 02EBB0CD400AC0AF;
    172 : D82C3302AC0A00000AD0AE;
    173 : -000010000000000;
    174 : -000010000000000;
    175 : 02AF0101980B00B1;
    176 : -000010000000000;
    177 : -000010000000000;
    178 : -000010000000000;
    179 : -000010000000000;
    180 : -000010000000000;
    181 : 02F7B0CE400B60E7;
    182 : 02F7B0CD400B70CE;
    183 : A000EBF0A00000B80C3;
    184 : 9800EB80A00000B90BE;
    185 : 02B90101E80BA0BB;
    186 : -000010000000000;
    187 : 02BB0A00080BC0BD;
    188 : -000010000000000;
    189 : -000010000000000;
    190 : 02BE0101EA0BF0C2;
    191 : 02BF0101E80C00C1;
    192 : -000010000000000;
    193 : -000010000000000;
    194 : -000010000000000;
    195 : AE3C5002C30A00000C40C9;
    196 : 02C40101E80C50C6;
    197 : -000010000000000;
    198 : 5241B6C2C60A00000C70C8;
    199 : -000010000000000;
    200 : -000010000000000;
    201 : 02C90101F00CA0CB;
    202 : -000010000000000;
    203 : 02CB0101F10CC0CD;
    204 : -000010000000000;
    205 : -000010000000000;
    206 : A000ECE0A00000CF0DE;
    207 : 02EFB0CDC00D00D7;
    208 : 02D00101F20D10D4;
    209 : 02D10101E90D20D3;
    210 : -000010000000000;
    211 : -000010000000000;
    212 : 02D40A30F70D50D6;
    213 : -000010000000000;
    214 : -000010000000000;
    215 : 02D70101F20D80DB;
    216 : 02D80101E90D90DA;
    217 : -000010000000000;
    218 : -000010000000000;
    219 : 02DB4E66F70DC0DD;
    220 : -000010000000000;
    221 : -000010000000000;
    222 : 02DE0101E80DF0E0;
    223 : -000010000000000;
    224 : 02E3B0CDC00E10E4;
    225 : AE460D7FFFFFF8000E20E3;
    226 : -000010000000000;
    227 : -000010000000000;
    228 : B7C83502E40A00000E50E6;
    229 : -000010000000000;
    230 : -000010000000000;
    231 : -000010000000000;
    232 : 02EBB0CE400E9158;
    233 : 02EBB0CDC00EA131;
    234 : 02EA0103FB0EB10E;
    235 : 02EBB0CD400EC0FD;
    236 : 02EC0101F50ED0F4;
    237 : 02ED0101F40EE0EF;
    238 : -000010000000000;
    239 : 80DBE7FF0A00000F00F1;
    240 : -000010000000000;
    241 : 1E0805C2F10A01000F20F3;
    242 : -000010000000000;
    243 : -000010000000000;
    244 : 02F40102C20F50F6;
    245 : -000010000000000;
    246 : 02F60102C30F70FA;
    247 : 3356FF9A00000F80F9;
    248 : -000010000000000;
    249 : -000010000000000;
    250 : 02FA0A00000FB0FC;
    251 : -000010000000000;
    252 : -000010000000000;
    253 : 02FD0A00010FE101;
    254 : 02FE0103260FF100;
    255 : -000010000000000;
    256 : -000010000000000;
    257 : CD2025B010A0000102109;
    258 : 03020101F5103106;
    259 : 03030101F4104105;
    260 : -000010000000000;
    261 : -000010000000000;
    262 : 75DD3E3060A0000107108;
    263 : -000010000000000;
    264 : -000010000000000;
    265 : 80048203090A000010A10D;
    266 : 030A0103E810B10C;
    267 : -000010000000000;
    268 : -000010000000000;
    269 : -000010000000000;
    270 : 030E01052A10F122;
    271 : 036FB0CD40110117;
    272 : 4732B403100A0000111116;
    273 : 03110104C0112113;
    274 : -000010000000000;
    275 : 03130104C1114115;
    276 : -000010000000000;
    277 : -000010000000000;
    278 : -000010000000000;
    279 : 03170A000111811D;
    280 : 03180104ED11911A;
    281 : -000010000000000;
    282 : 031A01050D11B11C;
    283 : -000010000000000;
    284 : -000010000000000;
    285 : 031D0104C011E11F;
    286 : -000010000000000;
    287 : 031F0104D1120121;
    288 : -000010000000000;
    289 : -000010000000000;
    290 : 03220A0000123126;
    291 : 0323010757124125;
    292 : -000010000000000;
    293 : -000010000000000;
    294 : 0367B0CD4012712C;
    295 : 40077FCA000012812B;
    296 : 032801077012912A;
    297 : -000010000000000;
    298 : -000010000000000;
    299 : -000010000000000;
    300 : 032C01077012D12E;
    301 : -000010000000000;
    302 : 40532FCA000012F130;
    303 : -000010000000000;
    304 : -000010000000000;
    305 : 03310102C213213D;
    306 : 03320101F513313C;
    307 : 03330101F4134135;
    308 : -000010000000000;
    309 : 8980007350A0000136137;
    310 : -000010000000000;
    311 : 19090013370A0100138139;
    312 : -000010000000000;
    313 : 9E4B6E03390A000013A13B;
    314 : -000010000000000;
    315 : -000010000000000;
    316 : -000010000000000;
    317 : 033D0A000013E13F;
    318 : -000010000000000;
    319 : 033F0103D114014B;
    320 : 03400103C0141146;
    321 : 034101034A142145;
    322 : 0342010347143144;
    323 : -000010000000000;
    324 : -000010000000000;
    325 : -000010000000000;
    326 : A2357B3460A000014714A;
    327 : 10D183F470A0000148149;
    328 : -000010000000000;
    329 : -000010000000000;
    330 : -000010000000000;
    331 : 034B0103EC14C151;
    332 : 034C0103E814D14E;
    333 : -000010000000000;
    334 : 034E0103E914F150;
    335 : -000010000000000;
    336 : -000010000000000;
    337 : 03510103FB152155;
    338 : 8F14CFFFFFFFF800153154;
    339 : -000010000000000;
    340 : -000010000000000;
    341 : 035501052B156157;
    342 : -000010000000000;
    343 : -000010000000000;
    344 : 037BB0CEC0159168;
    345 : 07FB0A1C0015A161;
    346 : 035A01039915B15E;
    347 : 03FB0A1C0015C15D;
    348 : -000010000000000;
    349 : -000010000000000;
    350 : 035E0103F215F160;
    351 : -000010000000000;
    352 : -000010000000000;
    353 : D048CA7FFFFFF80162163;
    354 : -000010000000000;
    355 : 03630102EF164167;
    356 : D8D8003640A0000165166;
    357 : -000010000000000;
    358 : -000010000000000;
    359 : -000010000000000;
    360 : 03680103DD16916A;
    361 : -000010000000000;
    362 : 036BB0CF4016B170;
    363 : 1BF184C36B0A000016C16D;
    364 : -000010000000000;
    365 : 036D0103EB16E16F;
    366 : -000010000000000;
    367 : -000010000000000;
    368 : 03700103EB171178;
    369 : 0373B0CFC0172177;
    370 : 917720A0000173176;
    371 : 07730A0000174175;
    372 : -000010000000000;
    373 : -000010000000000;
    374 : -000010000000000;
    375 : -000010000000000;
    376 : -000010000000000;
END;
