WIDTH=64;
DEPTH=512;
ADDRESS_RADIX=UNS;
DATA_RADIX=HEX;
CONTENT BEGIN
    0 : 242A98A8000A0000001120;
    1 : 08010103D10020B7;
    2 : 0863B0CE40003098;
    3 : 0863B0CD40004049;
    4 : 08040100C4005014;
    5 : 08050100C0006007;
    6 : -000010000000000;
    7 : 08070100C1008013;
    8 : 0A7F6EFC0000900C;
    9 : 08090A001700A00B;
    10 : -000010000000000;
    11 : -000010000000000;
    12 : 15057780C0A000000D010;
    13 : 14EDEAE0D0A000000E00F;
    14 : -000010000000000;
    15 : -000010000000000;
    16 : C71E128100A0000011012;
    17 : -000010000000000;
    18 : -000010000000000;
    19 : -000010000000000;
    20 : 08140101E5015032;
    21 : 08FD9A5E00016023;
    22 : 08160100F001701C;
    23 : 08170100C901801B;
    24 : 0838AA9A4001901A;
    25 : -000010000000000;
    26 : -000010000000000;
    27 : -000010000000000;
    28 : 081C0A000201D020;
    29 : 081D0101C101E01F;
    30 : -000010000000000;
    31 : -000010000000000;
    32 : 08200100F1021022;
    33 : -000010000000000;
    34 : -000010000000000;
    35 : 08230100C902402B;
    36 : 08240100C5025028;
    37 : CEB28D250A0000026027;
    38 : -000010000000000;
    39 : -000010000000000;
    40 : 08280100C802902A;
    41 : -000010000000000;
    42 : -000010000000000;
    43 : 11CC90D82B0A000002C02F;
    44 : FF1D8CAC0A000002D02E;
    45 : -000010000000000;
    46 : -000010000000000;
    47 : 17C3B1B82F0A0000030031;
    48 : -000010000000000;
    49 : -000010000000000;
    50 : 08320A000003303A;
    51 : 083301038B034039;
    52 : 083401031B035038;
    53 : 0835010202036037;
    54 : -000010000000000;
    55 : -000010000000000;
    56 : -000010000000000;
    57 : -000010000000000;
    58 : 1003D7A3A0A000003B042;
    59 : 083B0102C203C03F;
    60 : AF93E3C0A000003D03E;
    61 : -000010000000000;
    62 : -000010000000000;
    63 : 083FCFE5B0040041;
    64 : -000010000000000;
    65 : -000010000000000;
    66 : 08420101F7043046;
    67 : 08430101E8044045;
    68 : -000010000000000;
    69 : -000010000000000;
    70 : 08460103C0047048;
    71 : -000010000000000;
    72 : -000010000000000;
    73 : 08490101E504A06B;
    74 : 084A0100C004B04C;
    75 : -000010000000000;
    76 : 084C0AFF7C04D05C;
    77 : 084D01013304E055;
    78 : 086FB0CDC004F052;
    79 : 084F0100C5050051;
    80 : -000010000000000;
    81 : -000010000000000;
    82 : 08520A0038053054;
    83 : -000010000000000;
    84 : -000010000000000;
    85 : 085501017E056059;
    86 : 0877B0CDC0057058;
    87 : -000010000000000;
    88 : -000010000000000;
    89 : 087BB0CDC005A05B;
    90 : -000010000000000;
    91 : -000010000000000;
    92 : B31B8EDC0A000005D064;
    93 : 085D0100F005E061;
    94 : 085E0100C905F060;
    95 : -000010000000000;
    96 : -000010000000000;
    97 : 08610100F1062063;
    98 : -000010000000000;
    99 : -000010000000000;
    100 : 0867B0CDC0065068;
    101 : 08650100F9066067;
    102 : -000010000000000;
    103 : -000010000000000;
    104 : 08680101C406906A;
    105 : -000010000000000;
    106 : -000010000000000;
    107 : 086BB0CDC006C081;
    108 : 086C0102C206D076;
    109 : 086D0101F506E075;
    110 : 086E0101F206F072;
    111 : A000C6F0A0000070071;
    112 : -000010000000000;
    113 : -000010000000000;
    114 : 08720101F3073074;
    115 : -000010000000000;
    116 : -000010000000000;
    117 : -000010000000000;
    118 : 08760A000007707A;
    119 : 0877010326078079;
    120 : -000010000000000;
    121 : -000010000000000;
    122 : 087A0102C307B07E;
    123 : 37EFF2A800007C07D;
    124 : -000010000000000;
    125 : -000010000000000;
    126 : 087E0102F807F080;
    127 : -000010000000000;
    128 : -000010000000000;
    129 : 9DB81DA000008208B;
    130 : 08820A0001083084;
    131 : -000010000000000;
    132 : 0884EAD647085088;
    133 : 0885010347086087;
    134 : -000010000000000;
    135 : -000010000000000;
    136 : 088D3E43B808908A;
    137 : -000010000000000;
    138 : -000010000000000;
    139 : 088B0103C008C093;
    140 : F19801FFFFFFF8008D090;
    141 : 470E0288D0A000008E08F;
    142 : -000010000000000;
    143 : -000010000000000;
    144 : 102796B8900A0000091092;
    145 : -000010000000000;
    146 : -000010000000000;
    147 : 10D183F930A0000094095;
    148 : -000010000000000;
    149 : A2357B8950A0000096097;
    150 : -000010000000000;
    151 : -000010000000000;
    152 : 08FBB0CEC00990B6;
    153 : 089F0A208409A0A5;
    154 : 089A0100DD09B0A0;
    155 : 089B0A201009C09D;
    156 : -000010000000000;
    157 : 089F8A208409E09F;
    158 : -000010000000000;
    159 : -000010000000000;
    160 : 08A001015F0A10A4;
    161 : 08A10E81240A20A3;
    162 : -000010000000000;
    163 : -000010000000000;
    164 : -000010000000000;
    165 : 08A50100F50A60A7;
    166 : -000010000000000;
    167 : 08A701010C0A80AB;
    168 : 4008A88A00000A90AA;
    169 : -000010000000000;
    170 : -000010000000000;
    171 : 0FBB0A1C000AC0B1;
    172 : 08AC0103490AD0AE;
    173 : -000010000000000;
    174 : 0ABE3EA2B80AF0B0;
    175 : -000010000000000;
    176 : -000010000000000;
    177 : 08B10101EF0B20B3;
    178 : -000010000000000;
    179 : 08B301025C0B40B5;
    180 : -000010000000000;
    181 : -000010000000000;
    182 : -000010000000000;
    183 : 08B70A00000B80C7;
    184 : 08B80107570B90C6;
    185 : 08FBB0CDC00BA0C5;
    186 : 08BA0105300BB0C4;
    187 : 08BB0104000BC0BD;
    188 : -000010000000000;
    189 : 08FFB0CD400BE0C1;
    190 : 08BE0104B00BF0C0;
    191 : -000010000000000;
    192 : -000010000000000;
    193 : 08C10104ED0C20C3;
    194 : -000010000000000;
    195 : -000010000000000;
    196 : -000010000000000;
    197 : -000010000000000;
    198 : -000010000000000;
    199 : 08C701052A0C8109;
    200 : 08C80103F00C90DC;
    201 : 08C90103E80CA0CB;
    202 : -000010000000000;
    203 : 10FEF4F80000CC0D3;
    204 : 08EFB0CD400CD0D2;
    205 : 1ADD8E2E000CE0CF;
    206 : -000010000000000;
    207 : 3AFFBA00000D00D1;
    208 : -000010000000000;
    209 : -000010000000000;
    210 : -000010000000000;
    211 : 08D30103E90D40DB;
    212 : 08F7B0CE400D50D8;
    213 : 133D0EF8D50A00000D60D7;
    214 : -000010000000000;
    215 : -000010000000000;
    216 : 1BF184C8D80A00000D90DA;
    217 : -000010000000000;
    218 : -000010000000000;
    219 : -000010000000000;
    220 : 08DC0103FB0DD0FA;
    221 : 08FFB0CDC00DE0ED;
    222 : 08FFB0CD400DF0E6;
    223 : 08DF0103F10E00E3;
    224 : 5FAD78E89A80000E10E2;
    225 : -000010000000000;
    226 : -000010000000000;
    227 : 08E30103F80E40E5;
    228 : -000010000000000;
    229 : -000010000000000;
    230 : 08E60103F80E70EA;
    231 : A8529DE70A00000E80E9;
    232 : -000010000000000;
    233 : -000010000000000;
    234 : 08EA0A00F10EB0EC;
    235 : -000010000000000;
    236 : -000010000000000;
    237 : 08ED0103F70EE0F3;
    238 : 38F71B8EE0A00200EF0F2;
    239 : 08EF0103F10F00F1;
    240 : -000010000000000;
    241 : -000010000000000;
    242 : -000010000000000;
    243 : 08F30103FA0F40F7;
    244 : 08F7B0CE400F50F6;
    245 : -000010000000000;
    246 : -000010000000000;
    247 : 08F7B0CE400F80F9;
    248 : -000010000000000;
    249 : -000010000000000;
    250 : 1B30099FA0A00000FB102;
    251 : E9FB8F80000FC0FD;
    252 : -000010000000000;
    253 : E9FDCB80000FE0FF;
    254 : -000010000000000;
    255 : 08FFB0CE40100101;
    256 : -000010000000000;
    257 : -000010000000000;
    258 : 09020104C0103104;
    259 : -000010000000000;
    260 : 1D190BD040A0000105106;
    261 : -000010000000000;
    262 : 240B7BA9060A0000107108;
    263 : -000010000000000;
    264 : -000010000000000;
    265 : 096BB0CE4010A11F;
    266 : 090A01077010B10C;
    267 : -000010000000000;
    268 : 096FB0CDC010D118;
    269 : 096FB0CD4010E113;
    270 : 10794E2A000010F110;
    271 : -000010000000000;
    272 : 0910010773111112;
    273 : -000010000000000;
    274 : -000010000000000;
    275 : 276D7BCA0000114115;
    276 : -000010000000000;
    277 : 405B35CA0000116117;
    278 : -000010000000000;
    279 : -000010000000000;
    280 : 244BDCCA000011911A;
    281 : -000010000000000;
    282 : 091A01077411B11E;
    283 : 091B01077211C11D;
    284 : -000010000000000;
    285 : -000010000000000;
    286 : -000010000000000;
    287 : -000010000000000;
    288 : 09200100C0121122;
    289 : -000010000000000;
    290 : 09220101F512317E;
    291 : 4FFFD809230A0000124149;
    292 : 09240101E9125140;
    293 : 0967B0CE4012613F;
    294 : 0967B0CDC0127136;
    295 : 0967B0CD4012812F;
    296 : 09280101E412912C;
    297 : 2FF956A9290A000012A12B;
    298 : -000010000000000;
    299 : -000010000000000;
    300 : 092C0101E712D12E;
    301 : -000010000000000;
    302 : -000010000000000;
    303 : 092F010198130133;
    304 : 342A4F89300A0200131132;
    305 : -000010000000000;
    306 : -000010000000000;
    307 : 09330101E4134135;
    308 : -000010000000000;
    309 : -000010000000000;
    310 : 2F7E7A29360A0000137138;
    311 : -000010000000000;
    312 : 3FC4BBA9380A020013913C;
    313 : 09390100CB13A13B;
    314 : -000010000000000;
    315 : -000010000000000;
    316 : 093C01012813D13E;
    317 : -000010000000000;
    318 : -000010000000000;
    319 : -000010000000000;
    320 : 44E02C09400A0000141148;
    321 : 0963B0CDC0142147;
    322 : 42CB5C09420A0000143144;
    323 : -000010000000000;
    324 : 09440101F3145146;
    325 : -000010000000000;
    326 : -000010000000000;
    327 : -000010000000000;
    328 : -000010000000000;
    329 : 094901019814A15D;
    330 : 7B6D207FFFFFFC0014B152;
    331 : 094B01012A14C151;
    332 : 094C01012914D14E;
    333 : -000010000000000;
    334 : 59262E094E0A000014F150;
    335 : -000010000000000;
    336 : -000010000000000;
    337 : -000010000000000;
    338 : 09520100F915315C;
    339 : 7DC5E53FFFFFFC0015415B;
    340 : 7C7F7749540A0000155158;
    341 : 09550100EF156157;
    342 : -000010000000000;
    343 : -000010000000000;
    344 : 7D777D09580A000015915A;
    345 : -000010000000000;
    346 : -000010000000000;
    347 : -000010000000000;
    348 : -000010000000000;
    349 : 7FEAFF095D0A000015E167;
    350 : 097FB0CE4015F166;
    351 : 095F01019D160165;
    352 : 58F8F389600A0000161164;
    353 : 096101019C162163;
    354 : -000010000000000;
    355 : -000010000000000;
    356 : -000010000000000;
    357 : -000010000000000;
    358 : -000010000000000;
    359 : D1D37889670A0000168177;
    360 : 096BB0CDC0169170;
    361 : 096BB0CD4016A16D;
    362 : CFEFCA096A0A000016B16C;
    363 : -000010000000000;
    364 : -000010000000000;
    365 : CF59E4096D0A000016E16F;
    366 : -000010000000000;
    367 : -000010000000000;
    368 : D0B1E2FFFFFFF800171174;
    369 : CFAD7809710A0000172173;
    370 : -000010000000000;
    371 : -000010000000000;
    372 : 0977B0CE40175176;
    373 : -000010000000000;
    374 : -000010000000000;
    375 : 0977B0CE8017817D;
    376 : 097801019A17917C;
    377 : 097BB0CD4017A17B;
    378 : -000010000000000;
    379 : -000010000000000;
    380 : -000010000000000;
    381 : -000010000000000;
    382 : 097E01051417F198;
    383 : 097FB0CE40180197;
    384 : 09E3B0CDC018118C;
    385 : 09810103EC182183;
    386 : -000010000000000;
    387 : 80008C89830A000018418B;
    388 : 09840103ED185188;
    389 : 7EC0A289850A0000186187;
    390 : -000010000000000;
    391 : -000010000000000;
    392 : 4732B409880A000018918A;
    393 : -000010000000000;
    394 : -000010000000000;
    395 : -000010000000000;
    396 : 098C0103EC18D18E;
    397 : -000010000000000;
    398 : 098E0103EE18F192;
    399 : B38CDA098F0A0000190191;
    400 : -000010000000000;
    401 : -000010000000000;
    402 : 09920104C8193194;
    403 : -000010000000000;
    404 : 4A6F0F89940A0000195196;
    405 : -000010000000000;
    406 : -000010000000000;
    407 : -000010000000000;
    408 : -000010000000000;
END;
