WIDTH=64;
DEPTH=512;
ADDRESS_RADIX=UNS;
DATA_RADIX=HEX;
CONTENT BEGIN
    0 : 1063B0CE400011D0;
    1 : 242A97B0010A0000002149;
    2 : 8004D3820A0000003098;
    3 : 98C561B0A000000404F;
    4 : 10040100F0005022;
    5 : 10050A3FA8006011;
    6 : 10060100C0007008;
    7 : -000010000000000;
    8 : 10080100C6009010;
    9 : 106BB0CD4000A00D;
    10 : 100A0100C400B00C;
    11 : -000010000000000;
    12 : -000010000000000;
    13 : 100D0A003800E00F;
    14 : -000010000000000;
    15 : -000010000000000;
    16 : -000010000000000;
    17 : 1073B0CDC001201B;
    18 : 10120A4134013016;
    19 : 10130100D3014015;
    20 : -000010000000000;
    21 : -000010000000000;
    22 : 10160100C0017018;
    23 : -000010000000000;
    24 : 10180100C901901A;
    25 : -000010000000000;
    26 : -000010000000000;
    27 : 101B0100C001C01D;
    28 : -000010000000000;
    29 : 101D0100C601E021;
    30 : CE783F4A000001F020;
    31 : -000010000000000;
    32 : -000010000000000;
    33 : -000010000000000;
    34 : 10220A0000023032;
    35 : 1063B0CDC0024031;
    36 : 1067B0CD4002502C;
    37 : 1025010400026029;
    38 : 1026010202027028;
    39 : -000010000000000;
    40 : -000010000000000;
    41 : 10290104B002A02B;
    42 : -000010000000000;
    43 : -000010000000000;
    44 : 102C01016F02D02E;
    45 : -000010000000000;
    46 : 102E01046A02F030;
    47 : -000010000000000;
    48 : -000010000000000;
    49 : -000010000000000;
    50 : 10330A7B4E033042;
    51 : 1073B0CDC003403B;
    52 : 10340B0017035038;
    53 : 10350A100B036037;
    54 : -000010000000000;
    55 : -000010000000000;
    56 : 10381FAA8903903A;
    57 : -000010000000000;
    58 : -000010000000000;
    59 : 103B1AD84B03C03F;
    60 : 103C0101E603D03E;
    61 : -000010000000000;
    62 : -000010000000000;
    63 : 103FAB0E3C040041;
    64 : -000010000000000;
    65 : -000010000000000;
    66 : 107E5F6D80043048;
    67 : 104301034B044047;
    68 : 10440100F1045046;
    69 : -000010000000000;
    70 : -000010000000000;
    71 : -000010000000000;
    72 : FFFACF8A000004904C;
    73 : 106BB0CDC004A04B;
    74 : -000010000000000;
    75 : -000010000000000;
    76 : 106FB0CDC004D04E;
    77 : -000010000000000;
    78 : -000010000000000;
    79 : 104F0100C605006F;
    80 : 2C5692D00A0000051056;
    81 : 2A6B98D10A0000052055;
    82 : 10520100BF053054;
    83 : -000010000000000;
    84 : -000010000000000;
    85 : -000010000000000;
    86 : 42D738560A0000057060;
    87 : 3E70F2770A000005805D;
    88 : 10580100BB05905A;
    89 : -000010000000000;
    90 : 107BB0CD4005B05C;
    91 : -000010000000000;
    92 : -000010000000000;
    93 : 105D0100A005E05F;
    94 : -000010000000000;
    95 : -000010000000000;
    96 : 586FB8600A0000061068;
    97 : 1063B0CDC0062065;
    98 : 4C4D92620A0000063064;
    99 : -000010000000000;
    100 : -000010000000000;
    101 : 10650100B0066067;
    102 : -000010000000000;
    103 : -000010000000000;
    104 : 106BB0CDC006906C;
    105 : 5E1473E90A000006A06B;
    106 : -000010000000000;
    107 : -000010000000000;
    108 : 5CCB57EC0A000006D06E;
    109 : -000010000000000;
    110 : -000010000000000;
    111 : 106FB0CDC0070081;
    112 : 10700101E8071078;
    113 : 10710100C9072077;
    114 : 10720100C8073074;
    115 : -000010000000000;
    116 : 5FB452F40A0000075076;
    117 : -000010000000000;
    118 : -000010000000000;
    119 : -000010000000000;
    120 : 10780103FA079080;
    121 : 10790103D007A07D;
    122 : 107BB0CD4007B07C;
    123 : -000010000000000;
    124 : -000010000000000;
    125 : 4D8EF9FD0A000007E07F;
    126 : -000010000000000;
    127 : -000010000000000;
    128 : -000010000000000;
    129 : CEB52B90A000008208D;
    130 : AECDFA20A0000083088;
    131 : 9FD3FBB0A0000084085;
    132 : -000010000000000;
    133 : A42F2850A0000086087;
    134 : -000010000000000;
    135 : -000010000000000;
    136 : 108801019408908A;
    137 : -000010000000000;
    138 : C6B52CA0A000008B08C;
    139 : -000010000000000;
    140 : -000010000000000;
    141 : 53075C8D0A000008E093;
    142 : 108E01040408F092;
    143 : 492C98CF0A0000090091;
    144 : -000010000000000;
    145 : -000010000000000;
    146 : -000010000000000;
    147 : 10930103D0094095;
    148 : -000010000000000;
    149 : 109501041D096097;
    150 : -000010000000000;
    151 : -000010000000000;
    152 : 8624558980A00000990EE;
    153 : 10FBB0CDC009A0D1;
    154 : 14B131C9A0A000009B0B8;
    155 : 10FBB0CD4009C0AB;
    156 : 8421979C0A000009D0A4;
    157 : 109D0100CE09E0A1;
    158 : 80F53F9E0A000009F0A0;
    159 : -000010000000000;
    160 : -000010000000000;
    161 : 81117DA10A00000A20A3;
    162 : -000010000000000;
    163 : -000010000000000;
    164 : 10A40103F10A50A8;
    165 : FF1D32A50A00000A60A7;
    166 : -000010000000000;
    167 : -000010000000000;
    168 : 10A80104C20A90AA;
    169 : -000010000000000;
    170 : -000010000000000;
    171 : 840AFEAB0A00000AC0B1;
    172 : 10AC0100FD0AD0B0;
    173 : 822AFDAD0A00000AE0AF;
    174 : -000010000000000;
    175 : -000010000000000;
    176 : -000010000000000;
    177 : 10B10101F70B20B5;
    178 : 10B20100F80B30B4;
    179 : -000010000000000;
    180 : -000010000000000;
    181 : 10B50103F40B60B7;
    182 : -000010000000000;
    183 : -000010000000000;
    184 : 10B80103EC0B90C4;
    185 : 10FBB0CD400BA0BF;
    186 : 10BA0100B90BB0BC;
    187 : -000010000000000;
    188 : 10BC0101F70BD0BE;
    189 : -000010000000000;
    190 : -000010000000000;
    191 : 10BF0100BF0C00C1;
    192 : -000010000000000;
    193 : 6497138C10A00000C20C3;
    194 : -000010000000000;
    195 : -000010000000000;
    196 : 1B31E14FFFFFFF00C50CA;
    197 : 10C501051B0C60C9;
    198 : 10C60104E50C70C8;
    199 : -000010000000000;
    200 : -000010000000000;
    201 : -000010000000000;
    202 : 10EBB0CD400CB0CE;
    203 : 7FFD998CB0A00000CC0CD;
    204 : -000010000000000;
    205 : -000010000000000;
    206 : 7F32034CE0A00000CF0D0;
    207 : -000010000000000;
    208 : -000010000000000;
    209 : 10D10104FD0D20ED;
    210 : FF97D8D20A00000D30E0;
    211 : 10D30101060D40D9;
    212 : 10D40100C00D50D6;
    213 : -000010000000000;
    214 : 10D60100F40D70D8;
    215 : -000010000000000;
    216 : -000010000000000;
    217 : BD3AD2D90A00000DA0DD;
    218 : AA5850DA0A00000DB0DC;
    219 : -000010000000000;
    220 : -000010000000000;
    221 : E5AC3FDD0A00000DE0DF;
    222 : -000010000000000;
    223 : -000010000000000;
    224 : 6759650E00A00000E10E6;
    225 : 10E10100980E20E3;
    226 : -000010000000000;
    227 : 10E30101F90E40E5;
    228 : -000010000000000;
    229 : -000010000000000;
    230 : 732E038E60A00400E70EA;
    231 : 7326054E70A00000E80E9;
    232 : -000010000000000;
    233 : -000010000000000;
    234 : 783837CEA0A00000EB0EC;
    235 : -000010000000000;
    236 : -000010000000000;
    237 : -000010000000000;
    238 : F215ED0EE0A00000EF11A;
    239 : 10EFB0CD400F0109;
    240 : 10F00101F90F10FC;
    241 : DFA1DB0F10A00000F20F7;
    242 : 908EB38F20A00000F30F6;
    243 : 10F301018C0F40F5;
    244 : -000010000000000;
    245 : -000010000000000;
    246 : -000010000000000;
    247 : F160D30F70A00000F80FB;
    248 : EECC5D0F80A00000F90FA;
    249 : -000010000000000;
    250 : -000010000000000;
    251 : -000010000000000;
    252 : 8F93098FC0A00000FD104;
    253 : 8E9F4D8FD0A00000FE101;
    254 : 880FB90FE0A00000FF100;
    255 : -000010000000000;
    256 : -000010000000000;
    257 : 8EE0339010A0000102103;
    258 : -000010000000000;
    259 : -000010000000000;
    260 : CB84199040A0000105108;
    261 : C9A3199050A0000106107;
    262 : -000010000000000;
    263 : -000010000000000;
    264 : -000010000000000;
    265 : 116BB0CDC010A111;
    266 : 110A0103EA10B110;
    267 : 110B0103E410C10F;
    268 : 110C0101E910D10E;
    269 : -000010000000000;
    270 : -000010000000000;
    271 : -000010000000000;
    272 : -000010000000000;
    273 : 11110103E6112113;
    274 : -000010000000000;
    275 : BBFD91FFFFFFF80114117;
    276 : 9B3AC11140A0000115116;
    277 : -000010000000000;
    278 : -000010000000000;
    279 : 11170103F4118119;
    280 : -000010000000000;
    281 : -000010000000000;
    282 : 117BB0CD4011B138;
    283 : 11BACBB11B0A000011C129;
    284 : 111C0101EB11D124;
    285 : 10009E911D0A000011E121;
    286 : 111E0100AF11F120;
    287 : -000010000000000;
    288 : -000010000000000;
    289 : 10028EF1210A0000122123;
    290 : -000010000000000;
    291 : -000010000000000;
    292 : 11240104DD125128;
    293 : 11250104B5126127;
    294 : -000010000000000;
    295 : -000010000000000;
    296 : -000010000000000;
    297 : 1FFF4531290A000012A131;
    298 : 112A0100C512B12E;
    299 : 112B0100C012C12D;
    300 : -000010000000000;
    301 : -000010000000000;
    302 : 112E01019912F130;
    303 : -000010000000000;
    304 : -000010000000000;
    305 : 11310100C6132135;
    306 : 21125851320A0000133134;
    307 : -000010000000000;
    308 : -000010000000000;
    309 : 1135010525136137;
    310 : -000010000000000;
    311 : -000010000000000;
    312 : 11380101E9139142;
    313 : 11390100C013A13B;
    314 : -000010000000000;
    315 : 113B0100C513C13F;
    316 : 113C0100C413D13E;
    317 : -000010000000000;
    318 : -000010000000000;
    319 : 113F010198140141;
    320 : -000010000000000;
    321 : -000010000000000;
    322 : 114201052A143148;
    323 : 1143010529144147;
    324 : 133780F1440A0000145146;
    325 : -000010000000000;
    326 : -000010000000000;
    327 : -000010000000000;
    328 : -000010000000000;
    329 : 116BB0CDC014A195;
    330 : 2FFF69114A0A000014B14C;
    331 : -000010000000000;
    332 : 4FFFB0114C0A000014D170;
    333 : 114D0101E914E15F;
    334 : 114E0100C014F150;
    335 : -000010000000000;
    336 : 1173B0CD40151158;
    337 : 11510101E4152155;
    338 : 115201019D153154;
    339 : -000010000000000;
    340 : -000010000000000;
    341 : 38D5DDD1550A0000156157;
    342 : -000010000000000;
    343 : -000010000000000;
    344 : 45F992D1580A000015915C;
    345 : 34077BB1590A000015A15B;
    346 : -000010000000000;
    347 : -000010000000000;
    348 : 4704F4D15C0A000015D15E;
    349 : -000010000000000;
    350 : -000010000000000;
    351 : 117FB0CD40160167;
    352 : 11600104C8161162;
    353 : -000010000000000;
    354 : 401E7151620A0000163164;
    355 : -000010000000000;
    356 : 11640104C9165166;
    357 : -000010000000000;
    358 : -000010000000000;
    359 : 401FF9D1670A0000168169;
    360 : -000010000000000;
    361 : 4057D391690A000016A16D;
    362 : 116A01049616B16C;
    363 : -000010000000000;
    364 : -000010000000000;
    365 : 441585116D0A000016E16F;
    366 : -000010000000000;
    367 : -000010000000000;
    368 : 11700101F117118A;
    369 : 117101019817217D;
    370 : 7B6158FFFFFFFC00173178;
    371 : 56FD1D11730A0000174175;
    372 : -000010000000000;
    373 : 5703B711750A0000176177;
    374 : -000010000000000;
    375 : -000010000000000;
    376 : 11780100F817917A;
    377 : -000010000000000;
    378 : 117BB0CD4017B17C;
    379 : -000010000000000;
    380 : -000010000000000;
    381 : 117D01019D17E185;
    382 : 117FB0CD4017F182;
    383 : DA8BE87FFFFFF800180181;
    384 : -000010000000000;
    385 : -000010000000000;
    386 : 1182010199183184;
    387 : -000010000000000;
    388 : -000010000000000;
    389 : 11850101F0186187;
    390 : -000010000000000;
    391 : 11E7B0CD40188189;
    392 : -000010000000000;
    393 : -000010000000000;
    394 : 118A0103ED18B194;
    395 : 118B0103EC18C18D;
    396 : -000010000000000;
    397 : 11EFB0CD4018E191;
    398 : 8BB1FE918E0A000018F190;
    399 : -000010000000000;
    400 : -000010000000000;
    401 : 7EC0A291910A0000192193;
    402 : -000010000000000;
    403 : -000010000000000;
    404 : -000010000000000;
    405 : 4FFF65FFFFFFFC001961B7;
    406 : 30047271960A000019719C;
    407 : 2FEE33B1970A0000198199;
    408 : -000010000000000;
    409 : 119901014D19A19B;
    410 : -000010000000000;
    411 : -000010000000000;
    412 : 119C0101FB19D1AE;
    413 : 119D0100C019E19F;
    414 : -000010000000000;
    415 : 119F0101971A01A7;
    416 : 3454E011A00A00001A11A4;
    417 : 11A10100CF1A21A3;
    418 : -000010000000000;
    419 : -000010000000000;
    420 : 46AE0091A40A00001A51A6;
    421 : -000010000000000;
    422 : -000010000000000;
    423 : 11A70101E11A81AB;
    424 : 3DC1DE1FFFFFFE001A91AA;
    425 : -000010000000000;
    426 : -000010000000000;
    427 : 11AB0101EA1AC1AD;
    428 : -000010000000000;
    429 : -000010000000000;
    430 : 40211051AE0A00001AF1B0;
    431 : -000010000000000;
    432 : 11B00104AF1B11B2;
    433 : -000010000000000;
    434 : 11B20105171B31B6;
    435 : 486E7451B30A00001B41B5;
    436 : -000010000000000;
    437 : -000010000000000;
    438 : -000010000000000;
    439 : D01EFCFFFFFFF8001B81CF;
    440 : 11B80101981B91BA;
    441 : -000010000000000;
    442 : 11BA0101F11BB1C8;
    443 : 11BB01019D1BC1C3;
    444 : 11BC0101991BD1C0;
    445 : 9BC51E11BD0A00001BE1BF;
    446 : -000010000000000;
    447 : -000010000000000;
    448 : 7BF8CDD1C00A00001C11C2;
    449 : -000010000000000;
    450 : -000010000000000;
    451 : 11C30101EF1C41C5;
    452 : -000010000000000;
    453 : 8D95DE11C50A00001C61C7;
    454 : -000010000000000;
    455 : -000010000000000;
    456 : 11C80103ED1C91CE;
    457 : 800D9891C90A00001CA1CD;
    458 : 11CA0103EC1CB1CC;
    459 : -000010000000000;
    460 : -000010000000000;
    461 : -000010000000000;
    462 : -000010000000000;
    463 : -000010000000000;
    464 : 4011D04A00001D11F8;
    465 : 3F91D94A00001D21F3;
    466 : 11D20100DD1D31DC;
    467 : 11F3B0CEC01D41DB;
    468 : 11D70A20841D51DA;
    469 : 11D50A20101D61D7;
    470 : -000010000000000;
    471 : 11D78A20841D81D9;
    472 : -000010000000000;
    473 : -000010000000000;
    474 : -000010000000000;
    475 : -000010000000000;
    476 : 11FF8A80001DD1E6;
    477 : 11DD1A018F1DE1DF;
    478 : -000010000000000;
    479 : 11DF0101301E01E1;
    480 : -000010000000000;
    481 : 11E3B0CEC01E21E5;
    482 : 11E21A09131E31E4;
    483 : -000010000000000;
    484 : -000010000000000;
    485 : -000010000000000;
    486 : 11E60A00001E71EA;
    487 : 11E70102B61E81E9;
    488 : -000010000000000;
    489 : -000010000000000;
    490 : 1BEA0A00001EB1F2;
    491 : 11EBB0CEC01EC1EF;
    492 : 13FE0A1C001ED1EE;
    493 : -000010000000000;
    494 : -000010000000000;
    495 : 17EF8A00001F01F1;
    496 : -000010000000000;
    497 : -000010000000000;
    498 : -000010000000000;
    499 : 11F3B0CEC01F41F7;
    500 : 11F40104351F51F6;
    501 : -000010000000000;
    502 : -000010000000000;
    503 : -000010000000000;
    504 : 11F80101F31F91FA;
    505 : -000010000000000;
    506 : 11FBB0CF401FB208;
    507 : 11FB0103EB1FC207;
    508 : 11FC0103DD1FD202;
    509 : A398011FD0A00001FE1FF;
    510 : -000010000000000;
    511 : D8D8011FF0A0000200201;
    512 : -000010000000000;
    513 : -000010000000000;
    514 : 1263B0CEC0203204;
    515 : -000010000000000;
    516 : 1BEF847FFFFFFF00205206;
    517 : -000010000000000;
    518 : -000010000000000;
    519 : -000010000000000;
    520 : -000010000000000;
END;
