WIDTH=64;
DEPTH=512;
ADDRESS_RADIX=UNS;
DATA_RADIX=HEX;
CONTENT BEGIN
    0 : 242A98A4000A0000001164;
    1 : 04010103D10020C3;
    2 : 0463B0CE400030A6;
    3 : 0463B0CD40004053;
    4 : 04040100C400501E;
    5 : F6330E050A0000006013;
    6 : 0787CE360000700C;
    7 : 04070A000000800B;
    8 : 040801006000900A;
    9 : -000010000000000;
    10 : -000010000000000;
    11 : -000010000000000;
    12 : 061C4E340000D00E;
    13 : -000010000000000;
    14 : 040E0100C000F010;
    15 : -000010000000000;
    16 : 14DD6710A0000011012;
    17 : -000010000000000;
    18 : -000010000000000;
    19 : 04130100C0014015;
    20 : -000010000000000;
    21 : E1E76BC150A000001601B;
    22 : 407F32E160A000001701A;
    23 : 04170100C1018019;
    24 : -000010000000000;
    25 : -000010000000000;
    26 : -000010000000000;
    27 : 041B0100C201C01D;
    28 : -000010000000000;
    29 : -000010000000000;
    30 : 041E0101E501F03A;
    31 : 041F01017C02002D;
    32 : 7E87F6E00A0000021028;
    33 : 047F3B6100022025;
    34 : 04220100F1023024;
    35 : -000010000000000;
    36 : -000010000000000;
    37 : 073F5F8800026027;
    38 : -000010000000000;
    39 : -000010000000000;
    40 : 04280100FA02902C;
    41 : 04290100C902A02B;
    42 : -000010000000000;
    43 : -000010000000000;
    44 : -000010000000000;
    45 : 11D483542D0A000002E035;
    46 : 042E01019102F032;
    47 : 042F010190030031;
    48 : -000010000000000;
    49 : -000010000000000;
    50 : 0432010198033034;
    51 : -000010000000000;
    52 : -000010000000000;
    53 : 0435010199036039;
    54 : 0436010196037038;
    55 : -000010000000000;
    56 : -000010000000000;
    57 : -000010000000000;
    58 : 043A0A000003B044;
    59 : 043B01038B03C043;
    60 : 043C01031B03D040;
    61 : 043D01020203E03F;
    62 : -000010000000000;
    63 : -000010000000000;
    64 : 044001033E041042;
    65 : -000010000000000;
    66 : -000010000000000;
    67 : -000010000000000;
    68 : 1003D76440A000004504C;
    69 : 0445DED7A9046049;
    70 : 04469E73AA047048;
    71 : -000010000000000;
    72 : -000010000000000;
    73 : 04490102C204A04B;
    74 : -000010000000000;
    75 : -000010000000000;
    76 : 044C0101F504D050;
    77 : 10302A17FFFFFF0004E04F;
    78 : -000010000000000;
    79 : -000010000000000;
    80 : 04500103C0051052;
    81 : -000010000000000;
    82 : -000010000000000;
    83 : 04530101E5054075;
    84 : 04540100C0055056;
    85 : -000010000000000;
    86 : 0477B0CDC0057066;
    87 : 04570AFF7C05805F;
    88 : 045801013305905C;
    89 : 04590100C605A05B;
    90 : -000010000000000;
    91 : -000010000000000;
    92 : 045C01017E05D05E;
    93 : -000010000000000;
    94 : -000010000000000;
    95 : 045F0100C5060063;
    96 : 04600100C4061062;
    97 : -000010000000000;
    98 : -000010000000000;
    99 : 1009CF14630A0000064065;
    100 : -000010000000000;
    101 : -000010000000000;
    102 : 04660A00FE06706E;
    103 : 04670A000206806B;
    104 : 046801016606906A;
    105 : -000010000000000;
    106 : -000010000000000;
    107 : 046B0100EE06C06D;
    108 : -000010000000000;
    109 : -000010000000000;
    110 : 046E0100FA06F072;
    111 : 046F0B5F18070071;
    112 : -000010000000000;
    113 : -000010000000000;
    114 : 047201017C073074;
    115 : -000010000000000;
    116 : -000010000000000;
    117 : 04750102C207608D;
    118 : 04760101F3077082;
    119 : 04770101F207807F;
    120 : 047BB0CDC007907C;
    121 : A000C790A000007A07B;
    122 : -000010000000000;
    123 : -000010000000000;
    124 : A800C7C0A000007D07E;
    125 : -000010000000000;
    126 : -000010000000000;
    127 : 047F2ED1CD080081;
    128 : -000010000000000;
    129 : -000010000000000;
    130 : 4240A97FFFFFFC0083088;
    131 : 04830101F5084087;
    132 : C5EA64840A0000085086;
    133 : -000010000000000;
    134 : -000010000000000;
    135 : -000010000000000;
    136 : 23FA1BC4880A000008908C;
    137 : 04890101F608A08B;
    138 : -000010000000000;
    139 : -000010000000000;
    140 : -000010000000000;
    141 : 048D01034A08E09B;
    142 : 04EFB0CDC008F096;
    143 : 048F010333090093;
    144 : 04900102F9091092;
    145 : -000010000000000;
    146 : -000010000000000;
    147 : 0493010347094095;
    148 : -000010000000000;
    149 : -000010000000000;
    150 : 11BFDE8A000009709A;
    151 : 0497010333098099;
    152 : -000010000000000;
    153 : -000010000000000;
    154 : -000010000000000;
    155 : 04FBB0CDC009C0A1;
    156 : 049C0103C009D09E;
    157 : -000010000000000;
    158 : 049E0103C909F0A0;
    159 : -000010000000000;
    160 : -000010000000000;
    161 : 10D183FA10A00000A20A3;
    162 : -000010000000000;
    163 : 7E43A9CA30A00000A40A5;
    164 : -000010000000000;
    165 : -000010000000000;
    166 : 04E7B0CEC00A70C2;
    167 : 04A70A20840A80B3;
    168 : 04A80100DD0A90AE;
    169 : 04A90A20100AA0AB;
    170 : -000010000000000;
    171 : 04AB8A20840AC0AD;
    172 : -000010000000000;
    173 : -000010000000000;
    174 : 04AE01015F0AF0B2;
    175 : 04AF0F81A40B00B1;
    176 : -000010000000000;
    177 : -000010000000000;
    178 : -000010000000000;
    179 : 04B30100F50B40B5;
    180 : -000010000000000;
    181 : 04B501010C0B60B9;
    182 : 4004B68A00000B70B8;
    183 : -000010000000000;
    184 : -000010000000000;
    185 : 07BB0A1C000BA0BD;
    186 : 07BA0A1C000BB0BC;
    187 : -000010000000000;
    188 : -000010000000000;
    189 : A90040CBD0A00000BE0BF;
    190 : -000010000000000;
    191 : 04BF0101EF0C00C1;
    192 : -000010000000000;
    193 : -000010000000000;
    194 : -000010000000000;
    195 : 04C301052A0C4145;
    196 : E5E68F80000C50F2;
    197 : 04C50103F80C60DB;
    198 : 04E7B0CD400C70D0;
    199 : 04C70103E80C80C9;
    200 : -000010000000000;
    201 : 04C90A00050CA0CB;
    202 : -000010000000000;
    203 : 04CB0103E90CC0CF;
    204 : 1EDDAF4E000CD0CE;
    205 : -000010000000000;
    206 : -000010000000000;
    207 : -000010000000000;
    208 : 04F3B0CF000D10D8;
    209 : 04D10103E80D20D3;
    210 : -000010000000000;
    211 : 04D30103E90D40D7;
    212 : 04D40A00200D50D6;
    213 : -000010000000000;
    214 : -000010000000000;
    215 : -000010000000000;
    216 : 05D80A00000D90DA;
    217 : -000010000000000;
    218 : -000010000000000;
    219 : 04FBB0CE400DC0F1;
    220 : 04FFB0CDC00DD0EA;
    221 : 04DD0103FB0DE0E3;
    222 : 15FEEB28000DF0E2;
    223 : 04DF0103FA0E00E1;
    224 : -000010000000000;
    225 : -000010000000000;
    226 : -000010000000000;
    227 : 04E3B0CD400E40E7;
    228 : 04E40A00000E50E6;
    229 : -000010000000000;
    230 : -000010000000000;
    231 : 04E70A00000E80E9;
    232 : -000010000000000;
    233 : -000010000000000;
    234 : 04EA0103FB0EB0EE;
    235 : 54EFFA01380EC0ED;
    236 : -000010000000000;
    237 : -000010000000000;
    238 : 04EE0A00010EF0F0;
    239 : -000010000000000;
    240 : -000010000000000;
    241 : -000010000000000;
    242 : 13378214F20A00000F312E;
    243 : BC3937F30A00000F410F;
    244 : 4617F4CA00000F5102;
    245 : 04F50103E90F60FB;
    246 : 1DE7F7BA00000F70FA;
    247 : 04F70103E80F80F9;
    248 : -000010000000000;
    249 : -000010000000000;
    250 : -000010000000000;
    251 : 04FBB0CDC00FC0FF;
    252 : 04FC0104D00FD0FE;
    253 : -000010000000000;
    254 : -000010000000000;
    255 : E5FFCB8000100101;
    256 : -000010000000000;
    257 : -000010000000000;
    258 : 05020103F910310A;
    259 : 0563B0CDC0104107;
    260 : 0567B0CD40105106;
    261 : -000010000000000;
    262 : -000010000000000;
    263 : 05070103E5108109;
    264 : -000010000000000;
    265 : -000010000000000;
    266 : 056BB0CE4010B10E;
    267 : 050B0104D010C10D;
    268 : -000010000000000;
    269 : -000010000000000;
    270 : -000010000000000;
    271 : E15AB78F0A000011011F;
    272 : 0573B0CDC0111118;
    273 : 05110103F1112115;
    274 : 05120103EE113114;
    275 : -000010000000000;
    276 : -000010000000000;
    277 : C53BDF150A0000116117;
    278 : -000010000000000;
    279 : -000010000000000;
    280 : 051801040A11911C;
    281 : 057BB0CE4011A11B;
    282 : -000010000000000;
    283 : -000010000000000;
    284 : C5AA351C0A000011D11E;
    285 : -000010000000000;
    286 : -000010000000000;
    287 : FF587F1F0A0000120127;
    288 : E580A5A00A0000121124;
    289 : 05210103FA122123;
    290 : -000010000000000;
    291 : -000010000000000;
    292 : 0567B0CDC0125126;
    293 : -000010000000000;
    294 : -000010000000000;
    295 : 0567B0CDC012812B;
    296 : 05280103F112912A;
    297 : -000010000000000;
    298 : -000010000000000;
    299 : 056BB0CE4012C12D;
    300 : -000010000000000;
    301 : -000010000000000;
    302 : 052E01052912F142;
    303 : 056FB0CE4013013D;
    304 : 05300103E9131138;
    305 : 133F1435310A0000132135;
    306 : 0573B0CDC0133134;
    307 : -000010000000000;
    308 : -000010000000000;
    309 : 17E4D325350A0000136137;
    310 : -000010000000000;
    311 : -000010000000000;
    312 : 05380104BF13913A;
    313 : -000010000000000;
    314 : 053A0104C113B13C;
    315 : -000010000000000;
    316 : -000010000000000;
    317 : 057FB0CF4013E141;
    318 : 1BEF847FFFFFFF0013F140;
    319 : -000010000000000;
    320 : -000010000000000;
    321 : -000010000000000;
    322 : 228C4DBFFFFFFE00143144;
    323 : -000010000000000;
    324 : -000010000000000;
    325 : 0567B0CE40146163;
    326 : 0567B0CDC0147158;
    327 : 0547010770148149;
    328 : -000010000000000;
    329 : 056BB0CD4014A151;
    330 : 054A0A000214B14C;
    331 : -000010000000000;
    332 : 054C01077314D150;
    333 : DD77FBA000014E14F;
    334 : -000010000000000;
    335 : -000010000000000;
    336 : -000010000000000;
    337 : 05510A0001152153;
    338 : -000010000000000;
    339 : 0553010773154157;
    340 : 0554010772155156;
    341 : -000010000000000;
    342 : -000010000000000;
    343 : -000010000000000;
    344 : 05580A000015915A;
    345 : -000010000000000;
    346 : 055A01077015B15C;
    347 : -000010000000000;
    348 : 055C01077415D162;
    349 : 055D01077215E161;
    350 : 055E01077115F160;
    351 : -000010000000000;
    352 : -000010000000000;
    353 : -000010000000000;
    354 : -000010000000000;
    355 : -000010000000000;
    356 : 05640100C0165166;
    357 : -000010000000000;
    358 : 05660101F51671DA;
    359 : 4FFFD805670A000016818F;
    360 : 2FFF6905680A000016916A;
    361 : -000010000000000;
    362 : 056A0101E916B186;
    363 : 056BB0CDC016C17B;
    364 : 45F992C56C0A000016D174;
    365 : 056FB0CD4016E171;
    366 : 40715C3FFFFFFC0016F170;
    367 : -000010000000000;
    368 : -000010000000000;
    369 : 3407D365710A0200172173;
    370 : -000010000000000;
    371 : -000010000000000;
    372 : 0577B0CD40175178;
    373 : 4703CE85750A0000176177;
    374 : -000010000000000;
    375 : -000010000000000;
    376 : 471A0585780A000017917A;
    377 : -000010000000000;
    378 : -000010000000000;
    379 : 3FC4BBA57B0A020017C17F;
    380 : 057C0100CB17D17E;
    381 : -000010000000000;
    382 : -000010000000000;
    383 : 45FC8B457F0A0000180183;
    384 : 058001019B181182;
    385 : -000010000000000;
    386 : -000010000000000;
    387 : 05E3B0CE40184185;
    388 : -000010000000000;
    389 : -000010000000000;
    390 : 44898385860A000018718E;
    391 : 05E7B0CD40188189;
    392 : -000010000000000;
    393 : 05EBB0CDC018A18D;
    394 : 4230D6C58A0A000018B18C;
    395 : -000010000000000;
    396 : -000010000000000;
    397 : -000010000000000;
    398 : -000010000000000;
    399 : 05EFB0CDC01901BF;
    400 : 05F3B0CD401911AC;
    401 : 7B6D207FFFFFFC0019219F;
    402 : 0592010198193198;
    403 : 56F2B0C5930A0400194195;
    404 : -000010000000000;
    405 : 059501012B196197;
    406 : -000010000000000;
    407 : -000010000000000;
    408 : 51CD2845980A000019919C;
    409 : 51B0F145990A000019A19B;
    410 : -000010000000000;
    411 : -000010000000000;
    412 : 059C01019919D19E;
    413 : -000010000000000;
    414 : -000010000000000;
    415 : 059F0101981A01A5;
    416 : 05A00100F91A11A4;
    417 : 7DDC633FFFFFFC001A21A3;
    418 : -000010000000000;
    419 : -000010000000000;
    420 : -000010000000000;
    421 : D24A357FFFFFF8001A61A9;
    422 : 05A601019D1A71A8;
    423 : -000010000000000;
    424 : -000010000000000;
    425 : D8039585A90A00001AA1AB;
    426 : -000010000000000;
    427 : -000010000000000;
    428 : 7FF027FFFFFFFC001AD1B4;
    429 : 57EC0245AD0A00001AE1B3;
    430 : 05AE0101961AF1B0;
    431 : -000010000000000;
    432 : 05B001019A1B11B2;
    433 : -000010000000000;
    434 : -000010000000000;
    435 : -000010000000000;
    436 : D003D905B40A00001B51BA;
    437 : 05B50101981B61B7;
    438 : -000010000000000;
    439 : CFAB6485B70A00001B81B9;
    440 : -000010000000000;
    441 : -000010000000000;
    442 : 05BA0101971BB1BC;
    443 : -000010000000000;
    444 : 05BC0101991BD1BE;
    445 : -000010000000000;
    446 : -000010000000000;
    447 : D04F67FFFFFFF8001C01D3;
    448 : 05C00101961C11C6;
    449 : 7D26DD85C10A00001C21C5;
    450 : 7B60063FFFFFFC001C31C4;
    451 : -000010000000000;
    452 : -000010000000000;
    453 : -000010000000000;
    454 : 05C601019D1C71CE;
    455 : 758F3F05C70A00001C81CB;
    456 : 619126FFFFFFFC001C91CA;
    457 : -000010000000000;
    458 : -000010000000000;
    459 : 05CB0101991CC1CD;
    460 : -000010000000000;
    461 : -000010000000000;
    462 : 05EFB0CE401CF1D2;
    463 : 05CF0101EE1D01D1;
    464 : -000010000000000;
    465 : -000010000000000;
    466 : -000010000000000;
    467 : D7E161FFFFFFF8001D41D9;
    468 : D772BE85D40A00001D51D8;
    469 : 05F7B0CE401D61D7;
    470 : -000010000000000;
    471 : -000010000000000;
    472 : -000010000000000;
    473 : -000010000000000;
    474 : 05DA0105141DB1EA;
    475 : 80048205DB0A00001DC1E9;
    476 : 05DC0103EC1DD1DE;
    477 : -000010000000000;
    478 : 05DE0103ED1DF1E2;
    479 : 7C31CC45DF0A00001E01E1;
    480 : -000010000000000;
    481 : -000010000000000;
    482 : 05E3B0CE401E31E8;
    483 : 4731CAC5E30A00001E41E7;
    484 : 05E7B0CDC01E51E6;
    485 : -000010000000000;
    486 : -000010000000000;
    487 : -000010000000000;
    488 : -000010000000000;
    489 : -000010000000000;
    490 : -000010000000000;
END;
