WIDTH=64;
DEPTH=512;
ADDRESS_RADIX=UNS;
DATA_RADIX=HEX;
CONTENT BEGIN
    0 : 0F000100C0001002;
    1 : -000010000000000;
    2 : 4FFF933FFFFFFC000030FA;
    3 : 0F63B0CE400040C9;
    4 : 8004EF040A0000005076;
    5 : 0F67B0CD4000603D;
    6 : 0F070B80BC00701E;
    7 : 0F071B1EFA008015;
    8 : 0F080100C400900E;
    9 : 0F090100C100A00D;
    10 : 0F0A0A540500B00C;
    11 : -000010000000000;
    12 : -000010000000000;
    13 : -000010000000000;
    14 : 0F0E01034A00F012;
    15 : 0F0F0A0002010011;
    16 : -000010000000000;
    17 : -000010000000000;
    18 : 0F120A0000013014;
    19 : -000010000000000;
    20 : -000010000000000;
    21 : 0F1501034B01601D;
    22 : 0F169F93E401701A;
    23 : 0F1701019E018019;
    24 : -000010000000000;
    25 : -000010000000000;
    26 : 0F1A9F19DA01B01C;
    27 : -000010000000000;
    28 : -000010000000000;
    29 : -000010000000000;
    30 : 0F1E0101E101F02E;
    31 : 0FFF9A5E00020027;
    32 : 0F200100F0021024;
    33 : 0F31CEE380022023;
    34 : -000010000000000;
    35 : -000010000000000;
    36 : 0F240100F1025026;
    37 : -000010000000000;
    38 : -000010000000000;
    39 : 0F2FAE980002802B;
    40 : 0F2801017902902A;
    41 : -000010000000000;
    42 : -000010000000000;
    43 : 0F2B0101A002C02D;
    44 : -000010000000000;
    45 : -000010000000000;
    46 : 0F2EBE3C9402F036;
    47 : 0F2F9BFC50030033;
    48 : 0F326A5FB4031032;
    49 : -000010000000000;
    50 : -000010000000000;
    51 : 0F33010363034035;
    52 : -000010000000000;
    53 : -000010000000000;
    54 : 0F360102F903703A;
    55 : 0F370102C2038039;
    56 : -000010000000000;
    57 : -000010000000000;
    58 : 0F3A0103F903B03C;
    59 : -000010000000000;
    60 : -000010000000000;
    61 : 0F3D0A000203E059;
    62 : 0F3E01016F03F04A;
    63 : 0F7FB0CDC0040047;
    64 : 0F400A0001041044;
    65 : 0F410100CC042043;
    66 : -000010000000000;
    67 : -000010000000000;
    68 : 0F4401013E045046;
    69 : -000010000000000;
    70 : -000010000000000;
    71 : 0F47010133048049;
    72 : -000010000000000;
    73 : -000010000000000;
    74 : 0F4A01043E04B052;
    75 : 0F4B01034B04C04F;
    76 : 0F4C0A000004D04E;
    77 : -000010000000000;
    78 : -000010000000000;
    79 : 0F4F0A0000050051;
    80 : -000010000000000;
    81 : -000010000000000;
    82 : 0F73B0CDC0053056;
    83 : 0F530104ED054055;
    84 : -000010000000000;
    85 : -000010000000000;
    86 : 0F560104E0057058;
    87 : -000010000000000;
    88 : -000010000000000;
    89 : 0F590B000505A067;
    90 : 0F5A01013305B062;
    91 : 0F5B0A3DA505C05F;
    92 : 0F7FB0CDC005D05E;
    93 : -000010000000000;
    94 : -000010000000000;
    95 : 0F5F0A4187060061;
    96 : -000010000000000;
    97 : -000010000000000;
    98 : 0F620A100B063066;
    99 : 0F630A00FE064065;
    100 : -000010000000000;
    101 : -000010000000000;
    102 : -000010000000000;
    103 : 980CF6F0A000006806F;
    104 : 0F6BB0CDC006906C;
    105 : FFEFFB8A000006A06B;
    106 : -000010000000000;
    107 : -000010000000000;
    108 : 0F6C01034B06D06E;
    109 : -000010000000000;
    110 : -000010000000000;
    111 : 0F6FB0CDC0070073;
    112 : 0F700100C6071072;
    113 : -000010000000000;
    114 : -000010000000000;
    115 : CE3AF730A0000074075;
    116 : -000010000000000;
    117 : -000010000000000;
    118 : 0F760101E90770AE;
    119 : 0F77B0CDC0078097;
    120 : 0F7BB0CD40079088;
    121 : 13D6095F790A000007A081;
    122 : FE989FFA0A000007B07E;
    123 : 845E1F7B0A000007C07D;
    124 : -000010000000000;
    125 : -000010000000000;
    126 : 0F7E0100C707F080;
    127 : -000010000000000;
    128 : -000010000000000;
    129 : 0F810101E4082085;
    130 : 0F820100C5083084;
    131 : -000010000000000;
    132 : -000010000000000;
    133 : 0F850101E6086087;
    134 : -000010000000000;
    135 : -000010000000000;
    136 : 1002BBF880A0000089090;
    137 : 0F890100F908A08D;
    138 : 0F8A0100F808B08C;
    139 : -000010000000000;
    140 : -000010000000000;
    141 : DD25DF8D0A000008E08F;
    142 : -000010000000000;
    143 : -000010000000000;
    144 : 0F900100C5091094;
    145 : 4058AD0F910A0000092093;
    146 : -000010000000000;
    147 : -000010000000000;
    148 : 0F940100F8095096;
    149 : -000010000000000;
    150 : -000010000000000;
    151 : 0F970101900980A5;
    152 : 0F9801012A0990A0;
    153 : 0F990100C509A09D;
    154 : 0F9A0100C109B09C;
    155 : -000010000000000;
    156 : -000010000000000;
    157 : 5DE308F9D0A000009E09F;
    158 : -000010000000000;
    159 : -000010000000000;
    160 : 0FA001017C0A10A2;
    161 : -000010000000000;
    162 : 6D4338FA20A00000A30A4;
    163 : -000010000000000;
    164 : -000010000000000;
    165 : 650094FA50A00000A60A7;
    166 : -000010000000000;
    167 : 0FA70101E40A80AB;
    168 : 0FA80101C40A90AA;
    169 : -000010000000000;
    170 : -000010000000000;
    171 : 0FAB0101E60AC0AD;
    172 : -000010000000000;
    173 : -000010000000000;
    174 : 0FAE01052A0AF0C8;
    175 : 0FAF0103C00B00B9;
    176 : 0FB00101F50B10B8;
    177 : 0FF3B0CD400B20B5;
    178 : 0FB20101F40B30B4;
    179 : -000010000000000;
    180 : -000010000000000;
    181 : 0FF7B0CDC00B60B7;
    182 : -000010000000000;
    183 : -000010000000000;
    184 : -000010000000000;
    185 : 0FFBB0CDC00BA0C1;
    186 : 0FBA0103C90BB0BE;
    187 : 0FFBB0CD400BC0BD;
    188 : -000010000000000;
    189 : -000010000000000;
    190 : 0FFFB0CD400BF0C0;
    191 : -000010000000000;
    192 : -000010000000000;
    193 : 0FC10103D20C20C5;
    194 : 0FC20103C90C30C4;
    195 : -000010000000000;
    196 : -000010000000000;
    197 : 133B1C2FC50A00000C60C7;
    198 : -000010000000000;
    199 : -000010000000000;
    200 : -000010000000000;
    201 : 400FC94A00000CA0E9;
    202 : 0FEBB0CEC00CB0E2;
    203 : 0FCB0A00110CC0CD;
    204 : -000010000000000;
    205 : 0FCD0100DD0CE0D5;
    206 : 0FCF0A20840CF0D4;
    207 : 0FCF0A20100D00D1;
    208 : -000010000000000;
    209 : 0FD38A20840D20D3;
    210 : -000010000000000;
    211 : -000010000000000;
    212 : -000010000000000;
    213 : 0FD50103990D60DD;
    214 : 0FD60101620D70DA;
    215 : 200FDF9F00000D80D9;
    216 : -000010000000000;
    217 : -000010000000000;
    218 : 0FFA0A1C000DB0DC;
    219 : -000010000000000;
    220 : -000010000000000;
    221 : 7FFD2E00000DE0E1;
    222 : 0FDE0103F20DF0E0;
    223 : -000010000000000;
    224 : -000010000000000;
    225 : -000010000000000;
    226 : 0FE3B0CFC00E30E8;
    227 : 0FE30A44000E40E5;
    228 : -000010000000000;
    229 : 0FE50A00000E60E7;
    230 : -000010000000000;
    231 : -000010000000000;
    232 : -000010000000000;
    233 : D0C8C0FE90A00000EA0EB;
    234 : -000010000000000;
    235 : 0FEB0101EF0EC0ED;
    236 : -000010000000000;
    237 : 0FEFB0CF400EE0F9;
    238 : 0FEFB0CEC00EF0F4;
    239 : 0FEF0102EF0F00F3;
    240 : D8D800FF00A00000F10F2;
    241 : -000010000000000;
    242 : -000010000000000;
    243 : -000010000000000;
    244 : 0FF40102EF0F50F6;
    245 : -000010000000000;
    246 : 20549EFFF60A00000F70F8;
    247 : -000010000000000;
    248 : -000010000000000;
    249 : -000010000000000;
    250 : 0FFBB0CE400FB142;
    251 : 7B6ED1BFFFFFFC000FC111;
    252 : 51B5424FFC0A00000FD104;
    253 : 0FFD0101A30FE103;
    254 : 0FFFB0CD400FF102;
    255 : 0FFF010192100101;
    256 : -000010000000000;
    257 : -000010000000000;
    258 : -000010000000000;
    259 : -000010000000000;
    260 : 0F04010199105110;
    261 : 56D4BFCF050A0000106107;
    262 : -000010000000000;
    263 : 0F0701019810810D;
    264 : 0F0801012A10910C;
    265 : 0F0901012910A10B;
    266 : -000010000000000;
    267 : -000010000000000;
    268 : -000010000000000;
    269 : 57EA910F0D0A000010E10F;
    270 : -000010000000000;
    271 : -000010000000000;
    272 : -000010000000000;
    273 : 8000E50F110A0000112125;
    274 : 0F73B0CDC0113120;
    275 : 0F73B0CD4011411D;
    276 : 0F140103EF11511C;
    277 : 0F150101A3116119;
    278 : 0F160100F7117118;
    279 : -000010000000000;
    280 : -000010000000000;
    281 : 0F190103EA11A11B;
    282 : -000010000000000;
    283 : -000010000000000;
    284 : -000010000000000;
    285 : 7FFA0F0F1D0A000011E11F;
    286 : -000010000000000;
    287 : -000010000000000;
    288 : 0F20010406121124;
    289 : 7FF46BCF210A0000122123;
    290 : -000010000000000;
    291 : -000010000000000;
    292 : -000010000000000;
    293 : 0F67B0CDC0126139;
    294 : 0F67B0CD40127130;
    295 : 0F270101F112812F;
    296 : D1BC850F280A000012912C;
    297 : 0F2901019812A12B;
    298 : -000010000000000;
    299 : -000010000000000;
    300 : 0F2C01019612D12E;
    301 : -000010000000000;
    302 : -000010000000000;
    303 : -000010000000000;
    304 : 0F300101F1131138;
    305 : D017A27FFFFFF800132135;
    306 : CFE5810F320A0000133134;
    307 : -000010000000000;
    308 : -000010000000000;
    309 : 0F35010198136137;
    310 : -000010000000000;
    311 : -000010000000000;
    312 : -000010000000000;
    313 : 0F390101F213A141;
    314 : 0F3A01019813B13C;
    315 : -000010000000000;
    316 : D0B1E2FFFFFFF80013D140;
    317 : 8B09310F3D0A000013E13F;
    318 : -000010000000000;
    319 : -000010000000000;
    320 : -000010000000000;
    321 : -000010000000000;
    322 : -000010000000000;
END;
