WIDTH=64;
DEPTH=512;
ADDRESS_RADIX=UNS;
DATA_RADIX=HEX;
CONTENT BEGIN
    0 : 0063B0CE4000112C;
    1 : 00010100C0002003;
    2 : -000010000000000;
    3 : 4FFF2EC0030A00000040D5;
    4 : 8004D3840A0000005068;
    5 : 98C561D0A0000006043;
    6 : 0067B0CD40007024;
    7 : 00070A7166008015;
    8 : 00080100C400900E;
    9 : 00090100C100A00D;
    10 : 000A0A001700B00C;
    11 : -000010000000000;
    12 : -000010000000000;
    13 : -000010000000000;
    14 : 000E0A000000F012;
    15 : 000F010400010011;
    16 : -000010000000000;
    17 : -000010000000000;
    18 : 00121A04D9013014;
    19 : -000010000000000;
    20 : -000010000000000;
    21 : 001501034A01601D;
    22 : 00160100F001701A;
    23 : 033F5F8800018019;
    24 : -000010000000000;
    25 : -000010000000000;
    26 : 4F36DBE0A000001B01C;
    27 : -000010000000000;
    28 : -000010000000000;
    29 : 001D0103F901E021;
    30 : 001E0103F801F020;
    31 : -000010000000000;
    32 : -000010000000000;
    33 : E1351E8000022023;
    34 : -000010000000000;
    35 : -000010000000000;
    36 : 002401034A025034;
    37 : 0025FFEE6502602D;
    38 : 00260A000202702A;
    39 : 0067B0CDC0028029;
    40 : -000010000000000;
    41 : -000010000000000;
    42 : 006BB0CDC002B02C;
    43 : -000010000000000;
    44 : -000010000000000;
    45 : 40BD7E400002E031;
    46 : 002E0101EA02F030;
    47 : -000010000000000;
    48 : -000010000000000;
    49 : 0073B0CDC0032033;
    50 : -000010000000000;
    51 : -000010000000000;
    52 : 00340A000003503C;
    53 : 00350104ED036039;
    54 : 0036010460037038;
    55 : -000010000000000;
    56 : -000010000000000;
    57 : 003901066903A03B;
    58 : -000010000000000;
    59 : -000010000000000;
    60 : E13E8F800003D040;
    61 : 003D0103FC03E03F;
    62 : -000010000000000;
    63 : -000010000000000;
    64 : 520D7F0A0000041042;
    65 : -000010000000000;
    66 : -000010000000000;
    67 : 00430100C704404D;
    68 : 00440100C1045046;
    69 : -000010000000000;
    70 : 00460100C4047048;
    71 : -000010000000000;
    72 : 006BB0CD4004904C;
    73 : 3E384DC90A000004A04B;
    74 : -000010000000000;
    75 : -000010000000000;
    76 : -000010000000000;
    77 : 004D0103CF04E05B;
    78 : A000C4E0A000004F054;
    79 : 004F0101F2050053;
    80 : 9E6D9580A0000051052;
    81 : -000010000000000;
    82 : -000010000000000;
    83 : -000010000000000;
    84 : 00540101E8055058;
    85 : 0077B0CD40056057;
    86 : -000010000000000;
    87 : -000010000000000;
    88 : 3929C8D80A000005905A;
    89 : -000010000000000;
    90 : -000010000000000;
    91 : 4E351BDB0A000005C061;
    92 : 005C0103FA05D060;
    93 : 005D0103F805E05F;
    94 : -000010000000000;
    95 : -000010000000000;
    96 : -000010000000000;
    97 : 0063B0CDC0062065;
    98 : 0063B0CD40063064;
    99 : -000010000000000;
    100 : -000010000000000;
    101 : 53074CE50A0000066067;
    102 : -000010000000000;
    103 : -000010000000000;
    104 : 006BB0CDC00690A4;
    105 : 006BB0CD4006A087;
    106 : 006A0101F506B07A;
    107 : 138346006B0A000006C073;
    108 : FD83A96C0A000006D070;
    109 : 006D0100CA06E06F;
    110 : -000010000000000;
    111 : -000010000000000;
    112 : 8056998700A0000071072;
    113 : -000010000000000;
    114 : -000010000000000;
    115 : 1FFF4530730A0000074077;
    116 : 1400D680740A0000075076;
    117 : -000010000000000;
    118 : -000010000000000;
    119 : 45E85BC0770A0000078079;
    120 : -000010000000000;
    121 : -000010000000000;
    122 : 81C07387A0A000007B082;
    123 : 764EC27FFFFFFC007C07F;
    124 : FF41567C0A000007D07E;
    125 : -000010000000000;
    126 : -000010000000000;
    127 : 768C2BC7F0A0000080081;
    128 : -000010000000000;
    129 : -000010000000000;
    130 : 008201052A083086;
    131 : 00830104C0084085;
    132 : -000010000000000;
    133 : -000010000000000;
    134 : -000010000000000;
    135 : 85E13C8870A0000088097;
    136 : 00880101F7089090;
    137 : 1001969890A000008A08D;
    138 : 840AFE8A0A000008B08C;
    139 : -000010000000000;
    140 : -000010000000000;
    141 : 63E985C8D0A004008E08F;
    142 : -000010000000000;
    143 : -000010000000000;
    144 : 762F2D0900A0000091094;
    145 : 00910104F1092093;
    146 : -000010000000000;
    147 : -000010000000000;
    148 : 76833BC940A0000095096;
    149 : -000010000000000;
    150 : -000010000000000;
    151 : 00970101E909809F;
    152 : ECED2B8980A000009909C;
    153 : 88C1550990A000009A09B;
    154 : -000010000000000;
    155 : -000010000000000;
    156 : 009C0100C509D09E;
    157 : -000010000000000;
    158 : -000010000000000;
    159 : 009F01052A0A00A3;
    160 : D7983B8A00A00000A10A2;
    161 : -000010000000000;
    162 : -000010000000000;
    163 : -000010000000000;
    164 : 00A40101E90A50BE;
    165 : 00A50101900A60B1;
    166 : 2426017FFFFFFE000A70AC;
    167 : 00A70101800A80AB;
    168 : 8092A1A80A00000A90AA;
    169 : -000010000000000;
    170 : -000010000000000;
    171 : -000010000000000;
    172 : 00AC01012B0AD0B0;
    173 : 00AD0100C50AE0AF;
    174 : -000010000000000;
    175 : -000010000000000;
    176 : -000010000000000;
    177 : 00B10101E30B20B7;
    178 : 64E8948B20A00000B30B4;
    179 : -000010000000000;
    180 : 00B40101C40B50B6;
    181 : -000010000000000;
    182 : -000010000000000;
    183 : 00B70101E60B80BB;
    184 : 46E7A780B80A00000B90BA;
    185 : -000010000000000;
    186 : -000010000000000;
    187 : 00BB0101E80BC0BD;
    188 : -000010000000000;
    189 : -000010000000000;
    190 : 00BE0103BE0BF0C6;
    191 : 00BF0101F60C00C5;
    192 : 00C00101F40C10C2;
    193 : -000010000000000;
    194 : 8980004C20A00000C30C4;
    195 : -000010000000000;
    196 : -000010000000000;
    197 : -000010000000000;
    198 : 00C60103D40C70CE;
    199 : 00C70103C90C80CB;
    200 : 00C80103C20C90CA;
    201 : -000010000000000;
    202 : -000010000000000;
    203 : 00CB0103D00CC0CD;
    204 : -000010000000000;
    205 : -000010000000000;
    206 : 00CE0103F00CF0D2;
    207 : 133A1CE0CF0A00000D00D1;
    208 : -000010000000000;
    209 : -000010000000000;
    210 : 8029B08D20A00000D30D4;
    211 : -000010000000000;
    212 : -000010000000000;
    213 : 00F7B0CDC00D6117;
    214 : 7B6ED1BFFFFFFC000D70EE;
    215 : 00F7B0CD400D80E5;
    216 : 00D80101980D90E0;
    217 : 56F2B0C0D90A04000DA0DB;
    218 : -000010000000000;
    219 : 00DB01012B0DC0DF;
    220 : 00DC0101290DD0DE;
    221 : -000010000000000;
    222 : -000010000000000;
    223 : -000010000000000;
    224 : 00E001019D0E10E4;
    225 : 57FB9100E10A00000E20E3;
    226 : -000010000000000;
    227 : -000010000000000;
    228 : -000010000000000;
    229 : 57E9F5C0E50A00000E60ED;
    230 : 00E601019A0E70EC;
    231 : 5799D940E70A00000E80EB;
    232 : 00E80101960E90EA;
    233 : -000010000000000;
    234 : -000010000000000;
    235 : -000010000000000;
    236 : -000010000000000;
    237 : -000010000000000;
    238 : 00EFB0CD400EF104;
    239 : 00EF0101F10F00FD;
    240 : 00F00101980F10F6;
    241 : 7DAD293FFFFFF8000F20F5;
    242 : 7C8DB980F20A00000F30F4;
    243 : -000010000000000;
    244 : -000010000000000;
    245 : -000010000000000;
    246 : D1DDB180F60A00000F70FA;
    247 : 00F701019D0F80F9;
    248 : -000010000000000;
    249 : -000010000000000;
    250 : 00FA01019A0FB0FC;
    251 : -000010000000000;
    252 : -000010000000000;
    253 : 00FD0103ED0FE103;
    254 : 00FE0103EC0FF100;
    255 : -000010000000000;
    256 : 8BB1FE81000A0000101102;
    257 : -000010000000000;
    258 : -000010000000000;
    259 : -000010000000000;
    260 : 90003BFFFFFFF80010510C;
    261 : 8FFD7581050A000010610B;
    262 : 01060103ED10710A;
    263 : 8007B001070A0000108109;
    264 : -000010000000000;
    265 : -000010000000000;
    266 : -000010000000000;
    267 : -000010000000000;
    268 : D001C8810C0A000010D112;
    269 : CFF8B3FFFFFFF80010E111;
    270 : 010E0101F210F110;
    271 : -000010000000000;
    272 : -000010000000000;
    273 : -000010000000000;
    274 : D8159181120A0000113116;
    275 : D80F37FFFFFFF800114115;
    276 : -000010000000000;
    277 : -000010000000000;
    278 : -000010000000000;
    279 : 01170101F1118127;
    280 : D04F67FFFFFFF800119126;
    281 : 011901019811A11B;
    282 : -000010000000000;
    283 : 011B01019D11C123;
    284 : 011C01019911D120;
    285 : 9BC51E011D0A000011E11F;
    286 : -000010000000000;
    287 : -000010000000000;
    288 : 012001019C121122;
    289 : -000010000000000;
    290 : -000010000000000;
    291 : 01230101EF124125;
    292 : -000010000000000;
    293 : -000010000000000;
    294 : -000010000000000;
    295 : 01270103ED12812B;
    296 : 01280103EC12912A;
    297 : -000010000000000;
    298 : -000010000000000;
    299 : -000010000000000;
    300 : 40012C4A000012D15C;
    301 : 3F812D4A000012E157;
    302 : 012E0100DD12F13A;
    303 : 012F0100C7130131;
    304 : -000010000000000;
    305 : 01370A2084132139;
    306 : 0173B0CEC0133138;
    307 : 01330A2010134135;
    308 : -000010000000000;
    309 : 01378A2084136137;
    310 : -000010000000000;
    311 : -000010000000000;
    312 : -000010000000000;
    313 : -000010000000000;
    314 : 017BB0CEC013B14C;
    315 : 01FF8A800013C143;
    316 : 013C1A010413D13E;
    317 : -000010000000000;
    318 : 013E01013013F140;
    319 : -000010000000000;
    320 : 014001016E141142;
    321 : -000010000000000;
    322 : -000010000000000;
    323 : 01C30A0000144147;
    324 : 01440102B6145146;
    325 : -000010000000000;
    326 : -000010000000000;
    327 : 0147010321148149;
    328 : -000010000000000;
    329 : 73D9BA1C0014A14B;
    330 : -000010000000000;
    331 : -000010000000000;
    332 : 014C01039914D14E;
    333 : -000010000000000;
    334 : 016FB0CFC014F156;
    335 : 016FB0CF40150151;
    336 : -000010000000000;
    337 : 01510103F2152155;
    338 : 915520A0000153154;
    339 : -000010000000000;
    340 : -000010000000000;
    341 : -000010000000000;
    342 : -000010000000000;
    343 : 015701043515815B;
    344 : 017BB0CEC015915A;
    345 : -000010000000000;
    346 : -000010000000000;
    347 : -000010000000000;
    348 : 015C0101F315D15E;
    349 : -000010000000000;
    350 : 015E0103EB15F170;
    351 : 017FB0CF4016016F;
    352 : 01600103DD16116A;
    353 : 01610102DB162169;
    354 : 0163B0CEC0163168;
    355 : 8980005630A0000164165;
    356 : -000010000000000;
    357 : D8D8001650A0000166167;
    358 : -000010000000000;
    359 : -000010000000000;
    360 : -000010000000000;
    361 : -000010000000000;
    362 : 016BB0CEC016B16C;
    363 : -000010000000000;
    364 : 1BF184C16C0A000016D16E;
    365 : -000010000000000;
    366 : -000010000000000;
    367 : -000010000000000;
    368 : -000010000000000;
END;
